
#ifdef __has_attribute
#define HAVE_ATTRIBUTE(x) __has_attribute(x)
#else
#define HAVE_ATTRIBUTE(x) 0
#endif
#if HAVE_ATTRIBUTE(aligned) || (defined(__GNUC__) && !defined(__clang__))
#define DATA_ALIGN_ATTRIBUTE __attribute__((aligned(4)))
#else
#define DATA_ALIGN_ATTRIBUTE
#endif

const unsigned char model_data[] DATA_ALIGN_ATTRIBUTE = {
	0x1c, 0x00, 0x00, 0x00, 0x54, 0x46, 0x4c, 0x33, 0x00, 0x00, 0x12, 0x00,
	0x1c, 0x00, 0x04, 0x00, 0x08, 0x00, 0x0c, 0x00, 0x10, 0x00, 0x14, 0x00,
	0x00, 0x00, 0x18, 0x00, 0x12, 0x00, 0x00, 0x00, 0x03, 0x00, 0x00, 0x00,
	0x60, 0x11, 0x00, 0x00, 0x08, 0x0d, 0x00, 0x00, 0xf0, 0x0c, 0x00, 0x00,
	0x34, 0x00, 0x00, 0x00, 0x04, 0x00, 0x00, 0x00, 0x01, 0x00, 0x00, 0x00,
	0x04, 0x00, 0x00, 0x00, 0x48, 0xef, 0xff, 0xff, 0x08, 0x00, 0x00, 0x00,
	0x0b, 0x00, 0x00, 0x00, 0x13, 0x00, 0x00, 0x00, 0x6d, 0x69, 0x6e, 0x5f,
	0x72, 0x75, 0x6e, 0x74, 0x69, 0x6d, 0x65, 0x5f, 0x76, 0x65, 0x72, 0x73,
	0x69, 0x6f, 0x6e, 0x00, 0x0c, 0x00, 0x00, 0x00, 0xb0, 0x0c, 0x00, 0x00,
	0x94, 0x0c, 0x00, 0x00, 0x3c, 0x0c, 0x00, 0x00, 0xac, 0x0b, 0x00, 0x00,
	0xa4, 0x0b, 0x00, 0x00, 0x14, 0x09, 0x00, 0x00, 0x04, 0x01, 0x00, 0x00,
	0xfc, 0x00, 0x00, 0x00, 0xf4, 0x00, 0x00, 0x00, 0x24, 0x00, 0x00, 0x00,
	0x1c, 0x00, 0x00, 0x00, 0x04, 0x00, 0x00, 0x00, 0x9e, 0xf3, 0xff, 0xff,
	0x04, 0x00, 0x00, 0x00, 0x05, 0x00, 0x00, 0x00, 0x31, 0x2e, 0x35, 0x2e,
	0x30, 0x00, 0x00, 0x00, 0x4c, 0xef, 0xff, 0xff, 0xb6, 0xf3, 0xff, 0xff,
	0x04, 0x00, 0x00, 0x00, 0xc0, 0x00, 0x00, 0x00, 0xc3, 0x04, 0xe4, 0xbe,
	0x5e, 0xa4, 0xcd, 0xbe, 0x63, 0xc4, 0xc9, 0xbd, 0x51, 0xbe, 0x78, 0x3e,
	0x4a, 0xde, 0x7a, 0x3f, 0x50, 0x4c, 0x37, 0x3f, 0xbe, 0x64, 0x9f, 0xbd,
	0x9e, 0xcf, 0x2a, 0x3f, 0xd5, 0xbd, 0xea, 0x3d, 0x04, 0x24, 0x64, 0x3f,
	0x06, 0x18, 0x14, 0x3f, 0xf8, 0xd7, 0x27, 0x3f, 0x1a, 0xcc, 0x59, 0xbe,
	0x2f, 0x34, 0x9f, 0xbe, 0x40, 0xe3, 0x12, 0x40, 0xe2, 0x05, 0x7d, 0xbd,
	0x20, 0x0a, 0xea, 0x3c, 0xac, 0x95, 0x00, 0xbf, 0xab, 0xf3, 0xa4, 0xbe,
	0x3e, 0x6b, 0x53, 0x3e, 0x62, 0x43, 0x9d, 0xbe, 0xdd, 0x3f, 0x56, 0xbe,
	0xfd, 0x62, 0x3b, 0x40, 0x98, 0x6e, 0xa7, 0x3e, 0xcb, 0x34, 0x9a, 0x3e,
	0x4e, 0xf2, 0xce, 0xbe, 0xb0, 0xb9, 0x05, 0x3d, 0x16, 0xf7, 0x38, 0xbf,
	0x7b, 0x49, 0x34, 0xbe, 0xe2, 0x66, 0x08, 0x3e, 0x98, 0x01, 0x7b, 0x3a,
	0x69, 0x09, 0x03, 0x3f, 0x1a, 0xe5, 0x64, 0xbe, 0x30, 0xd9, 0x2b, 0xbf,
	0xbb, 0xd9, 0x1c, 0x3f, 0xe2, 0x83, 0xd2, 0x3d, 0xf1, 0x6d, 0xdd, 0xbe,
	0x16, 0xdb, 0x36, 0xbe, 0xd6, 0xb3, 0x8c, 0x3c, 0x40, 0xa6, 0x19, 0xbd,
	0x05, 0xbb, 0x62, 0x3e, 0x84, 0x69, 0x59, 0x3e, 0x63, 0x9e, 0xbf, 0xbe,
	0x6a, 0x2b, 0xac, 0xbe, 0xd7, 0xd9, 0x81, 0x3f, 0x3d, 0x48, 0xf5, 0x3e,
	0xb6, 0x29, 0x6f, 0xbf, 0x15, 0x0d, 0x3f, 0xbf, 0x1c, 0xf0, 0xff, 0xff,
	0x20, 0xf0, 0xff, 0xff, 0x8a, 0xf4, 0xff, 0xff, 0x04, 0x00, 0x00, 0x00,
	0x00, 0x08, 0x00, 0x00, 0x98, 0x9a, 0x78, 0xbe, 0x90, 0xfa, 0xe8, 0x3d,
	0x22, 0xb5, 0x2c, 0xbe, 0xc6, 0xaf, 0x8a, 0xbe, 0xa5, 0x06, 0xac, 0xbe,
	0xac, 0xa3, 0x78, 0xbe, 0x22, 0x04, 0x3d, 0x3e, 0x30, 0x87, 0xa8, 0xbd,
	0x70, 0x46, 0xf6, 0x3d, 0x94, 0xfa, 0xc5, 0xbd, 0x2d, 0x6b, 0x9f, 0xbe,
	0x90, 0xd1, 0xb8, 0x3c, 0x78, 0xb1, 0x8e, 0xbe, 0x44, 0x5c, 0x7f, 0xbe,
	0x5c, 0x39, 0xcc, 0x3d, 0xe0, 0x42, 0x81, 0xbd, 0xe4, 0xe1, 0xae, 0xbd,
	0xd8, 0x12, 0xa9, 0x3d, 0x72, 0xec, 0x1f, 0xbe, 0xa6, 0x0f, 0x51, 0x3e,
	0x62, 0xe9, 0xf6, 0xbd, 0x02, 0x93, 0xab, 0xbe, 0x40, 0x37, 0x96, 0xbe,
	0x92, 0x42, 0xb4, 0xbe, 0x30, 0xd2, 0xfd, 0xbc, 0x38, 0x83, 0x89, 0xbd,
	0xb8, 0x14, 0x34, 0x3d, 0x98, 0x9f, 0xea, 0x3d, 0x12, 0x23, 0x51, 0x3e,
	0xf4, 0x3c, 0x8c, 0x3d, 0xc8, 0x67, 0xa4, 0xbe, 0x9c, 0xdf, 0x8b, 0xbe,
	0xc2, 0xd9, 0x5c, 0xbe, 0x9e, 0x54, 0x9d, 0xbe, 0x01, 0x10, 0x08, 0xbe,
	0x5c, 0x89, 0xb3, 0x3e, 0x17, 0xd1, 0x20, 0x3e, 0x6b, 0x85, 0x43, 0xbd,
	0x20, 0x27, 0x5d, 0xbf, 0xeb, 0xbc, 0x8d, 0x3d, 0x40, 0x58, 0xb0, 0xbd,
	0xa9, 0x8e, 0x7d, 0xbc, 0x55, 0xc2, 0x7d, 0x3d, 0x55, 0xbf, 0xc4, 0x3d,
	0xc3, 0xea, 0x1f, 0x3e, 0xbe, 0x70, 0x09, 0x3e, 0xfb, 0xf8, 0x83, 0xbe,
	0x35, 0x71, 0x9c, 0xbe, 0xb3, 0x29, 0x03, 0xbf, 0xd0, 0x42, 0x9a, 0x3d,
	0xc3, 0xb8, 0x0e, 0x3e, 0xfb, 0x96, 0x76, 0x3e, 0xba, 0x23, 0xcc, 0x3e,
	0x5b, 0xce, 0x86, 0xbd, 0x5a, 0x61, 0x8d, 0xbe, 0x7f, 0x64, 0x01, 0xbf,
	0x52, 0x05, 0x96, 0x3d, 0xe6, 0x59, 0x6c, 0xbe, 0x7d, 0x4e, 0xfc, 0x38,
	0x1c, 0x22, 0xbd, 0xbe, 0x92, 0x51, 0x9c, 0xbd, 0x8b, 0x3e, 0xbc, 0x3e,
	0xc9, 0xfc, 0x84, 0x3d, 0xf4, 0xfe, 0x8c, 0x3c, 0x27, 0x07, 0x86, 0x3e,
	0xe4, 0xf9, 0xbe, 0xbe, 0xa3, 0x88, 0x3a, 0x3e, 0x31, 0x6d, 0x75, 0x3f,
	0xcf, 0x12, 0x32, 0xbe, 0xb7, 0xc0, 0x05, 0xbf, 0x46, 0xde, 0xa8, 0x3e,
	0xfa, 0x97, 0x1f, 0xbf, 0x27, 0x7e, 0x80, 0x3d, 0x57, 0x1b, 0x6f, 0x3d,
	0x17, 0x4b, 0x2d, 0x3c, 0x54, 0x8e, 0x71, 0x3e, 0x00, 0x76, 0x8d, 0xbe,
	0xcd, 0x00, 0xc4, 0xbd, 0x91, 0x86, 0x5a, 0xbe, 0x80, 0x65, 0x26, 0xbd,
	0x6e, 0x43, 0xb1, 0xbd, 0x23, 0x41, 0x1c, 0xbe, 0x2f, 0x8e, 0x6a, 0x3e,
	0x47, 0xd7, 0xaf, 0x3e, 0xa3, 0xc4, 0xc9, 0x3e, 0xc5, 0x4a, 0xcc, 0xbd,
	0xbd, 0x07, 0x59, 0x3d, 0x7a, 0x56, 0x96, 0xbf, 0x98, 0x23, 0x69, 0xbd,
	0xe6, 0x49, 0x26, 0xbe, 0x99, 0xb7, 0x15, 0x3e, 0x7b, 0xf6, 0x3a, 0x3f,
	0xcf, 0xa1, 0x58, 0xbe, 0x8a, 0x32, 0xde, 0x3d, 0x9f, 0xba, 0x6a, 0xbe,
	0xf6, 0xd3, 0x9e, 0x3b, 0xfa, 0xb9, 0x2d, 0xbe, 0xdf, 0x3f, 0x59, 0x3e,
	0x27, 0x8a, 0x6d, 0xbc, 0x60, 0xd6, 0x88, 0x3e, 0x09, 0x95, 0xc8, 0xbd,
	0xd2, 0x60, 0x68, 0xbe, 0xb8, 0xb7, 0xd3, 0x3c, 0x30, 0x04, 0xf2, 0x3a,
	0x78, 0xb7, 0x14, 0x3e, 0xba, 0x85, 0xe1, 0xbd, 0xa3, 0x21, 0xcc, 0xbe,
	0x69, 0x10, 0x23, 0x3e, 0xf0, 0x1e, 0x71, 0x3e, 0x01, 0x43, 0xb1, 0x3d,
	0x8d, 0x76, 0xb4, 0xbd, 0x36, 0xa9, 0xbd, 0xbe, 0x54, 0xdd, 0x8b, 0xbd,
	0x1f, 0x7c, 0xa1, 0x3e, 0xb3, 0x17, 0x04, 0xbf, 0xed, 0xb5, 0xc2, 0x3e,
	0xb2, 0x6a, 0xeb, 0xbc, 0x5c, 0x8f, 0xed, 0xbd, 0xcc, 0x75, 0x47, 0x3e,
	0x8b, 0xe8, 0x91, 0xbe, 0xf5, 0x94, 0x84, 0xbe, 0x19, 0x0e, 0xbf, 0xbe,
	0x4e, 0x40, 0xf4, 0xbd, 0x37, 0x6e, 0x86, 0xbe, 0xc2, 0x2b, 0xb2, 0x3e,
	0x0e, 0xda, 0xd5, 0xbe, 0xa1, 0x43, 0xc2, 0xbd, 0x6a, 0x41, 0x21, 0x3e,
	0xbb, 0x66, 0xd9, 0xbe, 0xc6, 0x84, 0x0b, 0xbe, 0xae, 0x17, 0x1f, 0xbf,
	0x55, 0x73, 0x33, 0xbc, 0xeb, 0x79, 0xa8, 0xbe, 0x65, 0xbb, 0x98, 0x3e,
	0xc4, 0x50, 0xe1, 0xbe, 0x82, 0xd9, 0x90, 0x3d, 0xe8, 0x57, 0x93, 0xbd,
	0x01, 0x43, 0x48, 0x3e, 0xfd, 0xa5, 0xc6, 0xbf, 0xc8, 0x2a, 0x8f, 0xbf,
	0x9d, 0x78, 0x58, 0xbd, 0xfa, 0x02, 0x1d, 0x3e, 0x73, 0xf4, 0xab, 0x3e,
	0x86, 0xc4, 0x38, 0xbd, 0xbd, 0xde, 0x5e, 0x3e, 0x54, 0x6e, 0xff, 0xbe,
	0x8e, 0x6f, 0xbe, 0xbe, 0x7d, 0xaa, 0x9f, 0xbd, 0x14, 0xf2, 0x1e, 0xbc,
	0xe2, 0x20, 0x86, 0x3e, 0xd3, 0xf8, 0x02, 0xbf, 0x8a, 0x14, 0x07, 0x3e,
	0x36, 0xe6, 0x4e, 0x3e, 0xd5, 0xb2, 0xa1, 0xbf, 0x7a, 0x43, 0xec, 0xbd,
	0xc8, 0xef, 0xba, 0xbf, 0x86, 0x3b, 0x60, 0xbe, 0x23, 0xc8, 0xb5, 0xbe,
	0x9e, 0xb2, 0x8b, 0x3e, 0x54, 0x75, 0x30, 0x3d, 0x55, 0xc1, 0xed, 0x3d,
	0xdc, 0xef, 0xaa, 0xbe, 0xc0, 0xd2, 0x07, 0x3f, 0x78, 0x09, 0xa2, 0xbe,
	0x8b, 0x78, 0xe8, 0xbd, 0xa0, 0x7a, 0x03, 0x3d, 0xee, 0x98, 0xa4, 0xbd,
	0xb7, 0xd0, 0x24, 0x3d, 0x6b, 0xe7, 0x91, 0xbe, 0xf1, 0x49, 0x7d, 0xbd,
	0xb4, 0xc4, 0x59, 0xbd, 0x90, 0x02, 0x85, 0xbe, 0xd5, 0x92, 0x39, 0x3d,
	0x51, 0x15, 0x81, 0x3e, 0x60, 0x7b, 0xb0, 0x3d, 0x38, 0x05, 0xaa, 0xbd,
	0xe3, 0x23, 0x85, 0xbd, 0x0d, 0x92, 0x1a, 0xbe, 0x3d, 0x74, 0x1c, 0xbe,
	0x08, 0xa0, 0xde, 0x3d, 0x93, 0xc9, 0xc7, 0xbe, 0xc0, 0x51, 0xa0, 0xbd,
	0x26, 0x01, 0x83, 0x3e, 0x83, 0xbf, 0x53, 0xbe, 0xb4, 0x46, 0xde, 0x3e,
	0x49, 0xd7, 0x9c, 0xbe, 0xfe, 0xa4, 0x7d, 0x3e, 0x97, 0x89, 0x88, 0xbe,
	0x16, 0xf1, 0x56, 0xbe, 0x21, 0xbe, 0x4c, 0x3e, 0xb1, 0x4a, 0xff, 0x3c,
	0x14, 0x88, 0x92, 0x3e, 0x12, 0xa6, 0x74, 0xbe, 0x7c, 0x11, 0x1b, 0xbf,
	0xb7, 0xb8, 0x82, 0xbf, 0xb4, 0x52, 0x64, 0xbf, 0xcc, 0xfc, 0x76, 0xbe,
	0x8a, 0x45, 0x43, 0xbf, 0x62, 0x3c, 0x0f, 0xc0, 0xcf, 0x4c, 0x1a, 0x3f,
	0xa1, 0xbb, 0x9a, 0x3d, 0x29, 0x37, 0xbd, 0xbe, 0xac, 0xcd, 0xb1, 0x3d,
	0xd2, 0x79, 0xfc, 0x3d, 0xd7, 0xbb, 0x88, 0x3e, 0xe4, 0xfa, 0x5b, 0x3e,
	0x15, 0xaa, 0xef, 0xbf, 0xb1, 0xd7, 0x8b, 0xbf, 0xbb, 0xf3, 0x12, 0xbf,
	0x38, 0xc9, 0x03, 0x3f, 0x60, 0x7d, 0x87, 0x3e, 0x84, 0x9d, 0xfc, 0x3d,
	0xdf, 0xab, 0xcd, 0x3d, 0x5f, 0x7f, 0x56, 0xbe, 0x26, 0xeb, 0x91, 0xbd,
	0x22, 0x9f, 0xd4, 0x3e, 0x81, 0x1e, 0x00, 0xc0, 0xd7, 0xc3, 0x38, 0xbf,
	0x2d, 0xcd, 0xc3, 0xbf, 0x5d, 0x36, 0x85, 0x3e, 0x40, 0x11, 0x97, 0xbe,
	0x47, 0x28, 0xeb, 0x3d, 0xff, 0x9f, 0x15, 0xbf, 0x3b, 0x0b, 0x22, 0xc0,
	0x5f, 0xba, 0xf3, 0xbe, 0x9b, 0xbc, 0xb1, 0x3d, 0x48, 0x66, 0x39, 0x3e,
	0x69, 0xc6, 0x46, 0xbe, 0x53, 0x0d, 0xa8, 0xbe, 0xae, 0x79, 0x0b, 0xbe,
	0x4d, 0xc9, 0x4f, 0xbf, 0x88, 0x76, 0xa2, 0xbd, 0x13, 0xbd, 0x98, 0xbe,
	0x95, 0x45, 0x96, 0x3e, 0xb8, 0xa7, 0xad, 0xbf, 0x6a, 0x7f, 0x16, 0xc0,
	0xb6, 0x87, 0x87, 0x3e, 0x8a, 0xbc, 0x67, 0x3e, 0x47, 0x1a, 0x85, 0x3d,
	0x3a, 0xe6, 0xb3, 0x3d, 0x82, 0x65, 0x85, 0x3e, 0x26, 0x9e, 0x24, 0xbf,
	0x6f, 0x29, 0x09, 0xbf, 0x08, 0xb1, 0x1d, 0xbe, 0x25, 0xd8, 0x21, 0x3e,
	0x7a, 0x49, 0x5c, 0x3e, 0xdc, 0xe7, 0x74, 0xbe, 0xed, 0x8c, 0x6f, 0x3e,
	0x37, 0x3c, 0xdf, 0xbd, 0x2c, 0x11, 0x29, 0xbf, 0x20, 0xfd, 0xa9, 0x3e,
	0xe0, 0x43, 0x60, 0xbf, 0x87, 0xed, 0x75, 0xbe, 0x6e, 0xed, 0x18, 0xbe,
	0x22, 0xee, 0xfc, 0xbe, 0x35, 0x30, 0xc9, 0xbd, 0xfb, 0x07, 0xef, 0x3e,
	0xcd, 0x10, 0x1f, 0x3e, 0x1a, 0xda, 0x7c, 0xbe, 0xa4, 0x1c, 0x1b, 0xbe,
	0x6f, 0xb2, 0xaa, 0xbd, 0x91, 0xac, 0x4f, 0xbe, 0xdd, 0x28, 0x6d, 0x3e,
	0xf6, 0x71, 0x0d, 0xbe, 0xbe, 0x35, 0x3a, 0xbe, 0x05, 0x42, 0xc8, 0xbe,
	0x03, 0xbc, 0xdf, 0x3d, 0xb4, 0x96, 0xe7, 0x3d, 0xef, 0x5e, 0x86, 0x3e,
	0xa5, 0x45, 0x73, 0x3d, 0x42, 0x62, 0x30, 0x3e, 0xec, 0x3f, 0x1f, 0x3e,
	0x4c, 0x29, 0x41, 0x3c, 0x6c, 0x78, 0xd1, 0xbc, 0x65, 0x97, 0x1d, 0x3e,
	0x8d, 0xb1, 0x02, 0xbd, 0x42, 0xf3, 0x9b, 0xbe, 0xec, 0xfe, 0x8e, 0xbe,
	0x69, 0x6d, 0x7d, 0x3e, 0x7e, 0xf7, 0x9e, 0xbe, 0x40, 0x55, 0x3b, 0x3e,
	0x04, 0x4f, 0x4b, 0xbe, 0xbf, 0x96, 0xd2, 0x3c, 0x10, 0x8f, 0xaf, 0x3e,
	0xae, 0x19, 0x20, 0xbe, 0x60, 0x8e, 0x6a, 0xbd, 0x02, 0x71, 0x39, 0xbe,
	0xbb, 0x86, 0x35, 0x3e, 0x1f, 0x77, 0xc7, 0xbe, 0x30, 0x09, 0x81, 0x3e,
	0xd7, 0x13, 0x00, 0xbe, 0x1f, 0x2f, 0xcd, 0xbe, 0x87, 0xfc, 0xa6, 0x3d,
	0xbc, 0x6e, 0x3d, 0x3e, 0x5f, 0x7e, 0x74, 0x3d, 0xed, 0x78, 0x1b, 0xbe,
	0x14, 0x54, 0x84, 0xbd, 0x0f, 0x0f, 0x3c, 0xbe, 0xe3, 0xf2, 0x58, 0xbe,
	0x2f, 0x8f, 0x66, 0xbf, 0x6a, 0x90, 0x1d, 0x3f, 0x7e, 0x28, 0x81, 0x3e,
	0x2d, 0x1f, 0x69, 0xbd, 0x6e, 0xc0, 0x35, 0xbd, 0x1c, 0xf7, 0x1d, 0xbe,
	0x73, 0x67, 0x65, 0xbf, 0x07, 0x06, 0x05, 0x3e, 0xf5, 0x8d, 0x39, 0x3c,
	0xb4, 0xe8, 0x95, 0xbe, 0xd8, 0xf1, 0xba, 0xbe, 0x67, 0x3b, 0xac, 0x3e,
	0x79, 0x11, 0x09, 0x3e, 0x66, 0x0d, 0xf0, 0x3d, 0xf7, 0x23, 0x5c, 0xbe,
	0xfb, 0x7a, 0xe5, 0x3d, 0xf8, 0x5f, 0x2b, 0xc0, 0xfe, 0x99, 0x83, 0x3e,
	0x33, 0xb5, 0x61, 0xbd, 0xab, 0x83, 0x8e, 0x3e, 0x73, 0xa5, 0x85, 0x3e,
	0x45, 0xc0, 0x15, 0xbf, 0xa7, 0xa7, 0x83, 0x3e, 0xb5, 0x4b, 0xbb, 0x3d,
	0x5a, 0xcd, 0x4f, 0xbe, 0xae, 0xe7, 0x37, 0xbd, 0xae, 0xbf, 0x02, 0x3e,
	0x8e, 0x8e, 0x7b, 0xbe, 0xa2, 0xdb, 0xbb, 0xbd, 0x89, 0xdc, 0xe4, 0x3c,
	0xc6, 0xd0, 0x1b, 0xbe, 0x14, 0xed, 0x13, 0xbf, 0x84, 0xdf, 0x85, 0x3d,
	0xac, 0x90, 0x21, 0xbf, 0x89, 0xcb, 0x3e, 0xbf, 0x62, 0x7a, 0x4f, 0xbe,
	0x1b, 0xe1, 0x66, 0x3e, 0x08, 0xd0, 0x59, 0x3e, 0x18, 0x9c, 0x48, 0xbe,
	0x97, 0x9b, 0x82, 0xbe, 0x51, 0xf0, 0x42, 0x3e, 0x28, 0x07, 0x48, 0xbe,
	0x82, 0x06, 0x27, 0xbe, 0xb0, 0xc1, 0xd5, 0xbe, 0xba, 0x3e, 0x7b, 0xbe,
	0xf2, 0x0e, 0x4d, 0x3d, 0x37, 0x92, 0x08, 0xbe, 0x6c, 0xa7, 0xa4, 0x3e,
	0xdc, 0x6f, 0x86, 0xbe, 0x5d, 0x8a, 0xea, 0xbe, 0x03, 0x2c, 0xe2, 0xbe,
	0x5c, 0x29, 0x63, 0x3e, 0x60, 0xa6, 0xdd, 0x3d, 0xc0, 0x88, 0xe1, 0xbd,
	0x79, 0x12, 0x74, 0x3d, 0x0b, 0x3d, 0xa9, 0x3d, 0xd2, 0xd0, 0x50, 0x3f,
	0xea, 0x29, 0x25, 0xbe, 0x17, 0xc1, 0x1b, 0xbf, 0xca, 0xd2, 0x05, 0xbe,
	0xf7, 0x46, 0xb9, 0xbc, 0xbc, 0xb5, 0xdf, 0xbd, 0x29, 0xd1, 0xef, 0xbd,
	0x08, 0x94, 0xb5, 0xbe, 0x62, 0x39, 0x1d, 0x3d, 0x1b, 0x6a, 0xc8, 0x3d,
	0xc5, 0x9b, 0x02, 0xbe, 0xfc, 0xc9, 0x3e, 0xbe, 0x43, 0x96, 0x11, 0xbf,
	0x24, 0x1a, 0x00, 0xbf, 0x62, 0xfd, 0x59, 0x3c, 0xc2, 0x1a, 0x9c, 0x3e,
	0x41, 0x03, 0xd0, 0x3e, 0x0a, 0xab, 0xd2, 0xbd, 0x24, 0x73, 0xc6, 0xbd,
	0xd8, 0xce, 0x78, 0xbf, 0xc4, 0x94, 0x8c, 0xbf, 0x38, 0xd8, 0xc5, 0xbc,
	0xdf, 0x66, 0x6e, 0xbe, 0x84, 0xc2, 0x4f, 0xbd, 0x64, 0x7e, 0x00, 0x3f,
	0x50, 0xbd, 0xbf, 0x3d, 0xf8, 0x14, 0xa9, 0x3e, 0x16, 0x1b, 0xc7, 0x3c,
	0x5c, 0x2e, 0x60, 0x3e, 0xdf, 0x5d, 0xee, 0xbd, 0xf6, 0xd8, 0x69, 0x3d,
	0x5c, 0xe3, 0x87, 0xbc, 0xf0, 0xe8, 0xe2, 0xbe, 0xb8, 0xd7, 0x58, 0xbe,
	0x0a, 0xd6, 0xac, 0xbd, 0x51, 0x75, 0x8d, 0x3e, 0x53, 0x8c, 0x9a, 0xbe,
	0xcd, 0xee, 0xad, 0xbd, 0x03, 0xaa, 0xbf, 0xbe, 0x3d, 0xcf, 0x1b, 0x3d,
	0xac, 0xc3, 0xae, 0xbe, 0x03, 0x77, 0xd7, 0xbd, 0xda, 0xa5, 0xd9, 0xbe,
	0xb2, 0x52, 0xe4, 0x3b, 0xe8, 0x47, 0x53, 0xbb, 0xd4, 0x89, 0x50, 0x3e,
	0x80, 0xac, 0xd4, 0xbd, 0xec, 0x43, 0xe7, 0xbd, 0x9d, 0xfd, 0x8a, 0x3c,
	0x2d, 0xcd, 0xdf, 0xbe, 0x63, 0xea, 0x5a, 0x3e, 0x14, 0xc5, 0xee, 0xba,
	0xe8, 0x7d, 0x91, 0xbf, 0x35, 0x17, 0xd1, 0xbe, 0x65, 0x7f, 0x6f, 0x3e,
	0x56, 0xb7, 0xa0, 0x3e, 0xb8, 0xd7, 0x9d, 0xbe, 0x02, 0xaf, 0xac, 0xbe,
	0xea, 0x2c, 0xbc, 0x3d, 0xaf, 0x44, 0x94, 0xbd, 0xc5, 0x9a, 0x99, 0xbd,
	0x88, 0x02, 0x54, 0x3e, 0x72, 0x46, 0x9b, 0xbe, 0xfb, 0x4c, 0xe7, 0xbe,
	0x40, 0xde, 0x89, 0xbe, 0x1b, 0x7a, 0x7b, 0xbe, 0x44, 0x4c, 0x5b, 0x3e,
	0xae, 0x39, 0xb1, 0x3d, 0xf8, 0x53, 0x68, 0xbe, 0x8a, 0xa6, 0x40, 0xbd,
	0xa0, 0x2b, 0xaf, 0xbd, 0x92, 0xac, 0xab, 0x3e, 0x19, 0x89, 0x2b, 0x3e,
	0x51, 0x90, 0x8a, 0xbe, 0x24, 0xba, 0x9f, 0xbe, 0xec, 0xcf, 0xa2, 0x3d,
	0xf6, 0x36, 0xb8, 0xbe, 0x98, 0x6a, 0x02, 0x3e, 0xfb, 0x3c, 0x4c, 0x3e,
	0x7e, 0x3d, 0x56, 0xbe, 0x09, 0x78, 0x8d, 0x3d, 0xef, 0x1d, 0x09, 0xbe,
	0x01, 0x6a, 0x89, 0x3e, 0xa0, 0x1c, 0x7d, 0xbd, 0x15, 0x28, 0xa8, 0x3e,
	0x5c, 0xd8, 0x52, 0xbf, 0x51, 0x5d, 0x8c, 0x3e, 0x93, 0xb4, 0xb7, 0xbd,
	0x14, 0x9c, 0xa8, 0xbd, 0xce, 0x64, 0x6e, 0x3d, 0x09, 0x8e, 0x87, 0x3e,
	0x0f, 0xc6, 0xc1, 0x3e, 0xb8, 0x30, 0x3a, 0x3e, 0xb5, 0xd6, 0xe9, 0x3e,
	0xc8, 0x3f, 0x96, 0xbe, 0x60, 0x24, 0x69, 0x3c, 0xb8, 0x85, 0x40, 0x3e,
	0x3f, 0xf3, 0xd2, 0xbd, 0xf7, 0x8f, 0x25, 0xbe, 0x9c, 0x8a, 0xd1, 0xbe,
	0x93, 0x8b, 0xb8, 0x3e, 0x3e, 0x0d, 0x4d, 0x3e, 0xe6, 0x21, 0x26, 0x3e,
	0x95, 0x83, 0xca, 0xbe, 0x6a, 0xa1, 0x40, 0xbe, 0x94, 0xc6, 0xc3, 0x3c,
	0x0d, 0x41, 0x2e, 0x3f, 0x5d, 0x74, 0x2f, 0xbf, 0x8a, 0x2e, 0x7d, 0xbe,
	0x15, 0x65, 0x87, 0xbf, 0xa6, 0xeb, 0x7c, 0x3f, 0xf0, 0x5b, 0x3d, 0x3e,
	0x1d, 0xae, 0xd5, 0x3e, 0xc9, 0xde, 0xfe, 0x3d, 0x11, 0x3e, 0x08, 0xbe,
	0x53, 0x2c, 0xad, 0xbf, 0xf7, 0xd6, 0x88, 0xbf, 0xae, 0x86, 0x50, 0x3f,
	0xf5, 0xac, 0x9b, 0x3d, 0xa7, 0xba, 0x4b, 0x3d, 0xee, 0x7a, 0x09, 0x3f,
	0x62, 0xd0, 0x89, 0x3e, 0xbb, 0x54, 0xdb, 0xbd, 0x55, 0x6e, 0x0e, 0x3f,
	0x16, 0xf1, 0x1a, 0xbf, 0xd9, 0x05, 0x0c, 0x3e, 0xae, 0x4f, 0xf0, 0xbe,
	0x54, 0x11, 0x21, 0xbf, 0x77, 0x6a, 0x96, 0x3e, 0x0c, 0xde, 0x98, 0x3d,
	0x3e, 0xd3, 0x24, 0xbe, 0x1f, 0xdc, 0xd4, 0xbe, 0x58, 0x51, 0x33, 0x3e,
	0x52, 0x6b, 0x66, 0xbe, 0x13, 0xa1, 0x83, 0xbe, 0x15, 0x0b, 0x4e, 0xbe,
	0xd4, 0x49, 0x28, 0x3e, 0xd9, 0x21, 0xd0, 0x3e, 0x98, 0x17, 0x31, 0xbe,
	0x0d, 0x33, 0x7d, 0xbe, 0x31, 0x9b, 0x43, 0xbf, 0xcc, 0x4d, 0x79, 0xbe,
	0x16, 0x4b, 0x44, 0x3d, 0x13, 0xe8, 0x81, 0x3d, 0x10, 0x36, 0xe4, 0x3e,
	0x3a, 0x70, 0x86, 0x3e, 0x39, 0x8a, 0x2a, 0xbe, 0x12, 0xec, 0x49, 0xbf,
	0xdb, 0x89, 0x40, 0x3e, 0x30, 0x6e, 0xee, 0xbe, 0x06, 0x35, 0xba, 0xbd,
	0xe5, 0x7b, 0x87, 0xbe, 0xa5, 0x5b, 0x10, 0x3f, 0xf8, 0xb2, 0xa3, 0x3d,
	0xf9, 0xbd, 0xe6, 0x3e, 0x07, 0xa7, 0xaa, 0x3d, 0x32, 0x87, 0x11, 0x3e,
	0x96, 0xfc, 0xff, 0xff, 0x04, 0x00, 0x00, 0x00, 0x80, 0x02, 0x00, 0x00,
	0x9b, 0x72, 0x8f, 0xbe, 0xf7, 0xba, 0x31, 0xba, 0x1f, 0x7c, 0xfc, 0xbe,
	0x2d, 0xb3, 0x10, 0xbf, 0xab, 0x10, 0x88, 0xbe, 0xdb, 0x2e, 0xb9, 0xbd,
	0xe2, 0x00, 0xa6, 0x3e, 0xee, 0x81, 0x2d, 0x3e, 0x7f, 0x09, 0xfa, 0xba,
	0xc4, 0x42, 0x98, 0x3d, 0x7b, 0xb3, 0x48, 0xbe, 0x46, 0x4a, 0xcf, 0x3e,
	0xf9, 0xb5, 0x1c, 0xbf, 0x31, 0x85, 0x8b, 0xbe, 0xde, 0xbb, 0x07, 0xbd,
	0xfa, 0x10, 0xba, 0x3e, 0x30, 0x2c, 0x87, 0xbe, 0xc6, 0x1a, 0xcc, 0x3e,
	0xf6, 0xf7, 0x0e, 0xbf, 0xa8, 0xca, 0xcb, 0xbd, 0x1f, 0x18, 0xf5, 0x3e,
	0xca, 0x36, 0x0c, 0x3e, 0xa6, 0xb0, 0x95, 0x3e, 0x14, 0x4a, 0xd4, 0x3e,
	0x06, 0xa8, 0xac, 0x3e, 0xc2, 0xf2, 0x3f, 0xbe, 0xd2, 0xa5, 0x27, 0x3e,
	0xad, 0xbc, 0x88, 0xbe, 0xbf, 0x9d, 0x60, 0x3e, 0x70, 0x66, 0x0b, 0x3e,
	0x0e, 0x0f, 0x27, 0x3c, 0x42, 0xd0, 0xed, 0x3e, 0xae, 0x20, 0x33, 0xbf,
	0xca, 0x9f, 0x73, 0x3d, 0x9d, 0x3e, 0x15, 0x3d, 0x63, 0xe4, 0xb7, 0xbe,
	0x33, 0xa8, 0x4b, 0xbf, 0x5b, 0x32, 0xbd, 0xbd, 0x66, 0x18, 0x03, 0x3f,
	0xcc, 0x92, 0xa5, 0x3e, 0x28, 0xb8, 0x98, 0x3e, 0x26, 0xfa, 0x12, 0x3e,
	0x8c, 0x0f, 0xf4, 0x3e, 0xe4, 0x14, 0xdd, 0xbb, 0x90, 0xa9, 0xe0, 0xbe,
	0x5d, 0x33, 0x3d, 0x3d, 0xf7, 0xb0, 0xf0, 0x3e, 0xdc, 0x4f, 0x07, 0xbd,
	0x05, 0x82, 0x1d, 0xbe, 0x69, 0x76, 0x58, 0x3d, 0xc0, 0x58, 0x43, 0xbe,
	0x96, 0x24, 0xfc, 0x3e, 0x88, 0x2f, 0x24, 0xbf, 0x2f, 0xf2, 0x8e, 0xbe,
	0x10, 0xcf, 0x6b, 0x3e, 0x81, 0xad, 0x41, 0x3c, 0xdc, 0x31, 0xc5, 0x3d,
	0x6f, 0x53, 0x3d, 0xbf, 0xb8, 0xe7, 0x15, 0xbf, 0x9f, 0x0b, 0xf4, 0xbe,
	0x00, 0xc6, 0x7e, 0x3e, 0xf5, 0x15, 0x27, 0xbf, 0xcb, 0x99, 0x20, 0x3e,
	0x20, 0x53, 0xd8, 0xbe, 0xb3, 0xd2, 0xa1, 0xbe, 0xe3, 0x85, 0xd1, 0xbe,
	0x40, 0xc4, 0xf1, 0xbe, 0xbe, 0x67, 0x22, 0x3d, 0x12, 0x98, 0x87, 0x3e,
	0x09, 0xdf, 0x12, 0xbd, 0x45, 0x12, 0x0d, 0x3f, 0x11, 0xe8, 0x8f, 0x3c,
	0xbc, 0x63, 0x02, 0x3e, 0x16, 0x07, 0xab, 0x3d, 0x76, 0x69, 0x6e, 0x3e,
	0xd0, 0xb3, 0x19, 0xbf, 0x21, 0xf2, 0x1a, 0x3f, 0x14, 0x4d, 0x52, 0x3c,
	0x58, 0xa0, 0xde, 0xbb, 0x13, 0xd9, 0x22, 0x3d, 0x81, 0x2c, 0x9a, 0x3e,
	0x01, 0xa8, 0xdc, 0x3d, 0x08, 0x7c, 0xd8, 0x3e, 0x80, 0xb5, 0x6d, 0xbe,
	0x2b, 0x0d, 0x88, 0xbd, 0x97, 0xdb, 0xf1, 0xbe, 0xa0, 0xab, 0xdd, 0xbd,
	0xb1, 0xa4, 0x61, 0xbe, 0x8b, 0x32, 0xa3, 0x3e, 0x93, 0xc4, 0xea, 0xbc,
	0xe4, 0xb1, 0xc3, 0xbe, 0xb3, 0xe2, 0x2d, 0x3d, 0x6c, 0xab, 0x99, 0xbd,
	0x0d, 0x44, 0xf4, 0xbe, 0x34, 0x9f, 0x3e, 0x3e, 0xff, 0x81, 0x85, 0xbe,
	0x32, 0x39, 0x0d, 0xbe, 0x34, 0xee, 0x8c, 0x3e, 0x59, 0x12, 0x92, 0xbe,
	0x4a, 0x5e, 0xdd, 0x3e, 0x89, 0x58, 0x85, 0x3e, 0x35, 0xaf, 0x25, 0xbe,
	0x14, 0xf3, 0xc2, 0xbd, 0x34, 0xcf, 0xaa, 0x3e, 0x21, 0xb5, 0xf1, 0x3a,
	0xa5, 0x37, 0x77, 0x3e, 0x9b, 0x71, 0xe2, 0x3d, 0xd6, 0x6c, 0x79, 0x39,
	0x8e, 0xa0, 0x18, 0x3e, 0xe2, 0x70, 0x90, 0x3e, 0xc3, 0x98, 0x08, 0xbe,
	0x45, 0xbc, 0xdf, 0x3e, 0x9c, 0x40, 0xcf, 0xbe, 0x14, 0xc8, 0x49, 0xbd,
	0xc4, 0x9f, 0x33, 0x3e, 0x03, 0x72, 0xd7, 0x3d, 0xaf, 0xe6, 0x30, 0xbf,
	0xc5, 0xb3, 0x42, 0x3e, 0x45, 0x86, 0xcd, 0x3e, 0x76, 0xce, 0x77, 0x3d,
	0xa9, 0x04, 0x29, 0xbf, 0xd4, 0xe9, 0x42, 0xb9, 0xa4, 0xd2, 0xfc, 0x3d,
	0x33, 0x81, 0xba, 0x3d, 0x7e, 0xe6, 0xef, 0xbb, 0xbd, 0x51, 0xb3, 0xbd,
	0xe6, 0xd7, 0xa8, 0x3e, 0x95, 0x15, 0x0b, 0xbf, 0xe6, 0xbd, 0xfb, 0x3c,
	0x85, 0x49, 0xdc, 0x3c, 0xbd, 0x2b, 0x90, 0x3e, 0x58, 0x42, 0x26, 0x3d,
	0xa1, 0x52, 0x80, 0x3e, 0xec, 0xb6, 0x19, 0x3e, 0x3a, 0xa1, 0x3a, 0xbc,
	0xe6, 0xb8, 0xc7, 0xbd, 0xa1, 0x41, 0xb7, 0xbe, 0xde, 0x66, 0x0e, 0x3d,
	0x50, 0x15, 0x73, 0xbf, 0x7a, 0xbd, 0xbb, 0xbc, 0x84, 0x87, 0xc3, 0x3e,
	0x67, 0x66, 0x51, 0xbe, 0x95, 0x92, 0x9f, 0xbd, 0x5c, 0x71, 0x58, 0xbe,
	0xdd, 0x9a, 0xa6, 0x3e, 0xc7, 0xf4, 0x13, 0x3e, 0x43, 0xba, 0x54, 0xbe,
	0x58, 0xea, 0x48, 0xbf, 0xa0, 0xc5, 0x22, 0xbe, 0xb0, 0x7c, 0x05, 0xbe,
	0x5f, 0xe4, 0x25, 0x3d, 0x67, 0xf1, 0x64, 0xbe, 0xcf, 0x47, 0x04, 0xbe,
	0x02, 0x30, 0x85, 0xbe, 0x53, 0x51, 0xb7, 0x3e, 0x46, 0x75, 0x1e, 0x3f,
	0x93, 0x04, 0x3d, 0x3e, 0xa7, 0xf5, 0x57, 0xbe, 0x7e, 0xbd, 0x7d, 0x3e,
	0x7f, 0x41, 0xfe, 0xbc, 0xbc, 0xfa, 0xff, 0xff, 0x26, 0xff, 0xff, 0xff,
	0x04, 0x00, 0x00, 0x00, 0x80, 0x00, 0x00, 0x00, 0x1b, 0x4f, 0x8b, 0xbe,
	0x70, 0xff, 0x21, 0x3e, 0xce, 0xb0, 0x79, 0xbc, 0x91, 0x85, 0x8e, 0xbd,
	0x5d, 0x38, 0x0e, 0xbe, 0x67, 0xc2, 0xe0, 0xbc, 0x17, 0xb8, 0x85, 0x3c,
	0x6f, 0x0b, 0xc7, 0x3a, 0xfb, 0x29, 0x73, 0x3c, 0x9d, 0xe8, 0x0d, 0xbe,
	0x62, 0x85, 0x3a, 0x3e, 0x64, 0x61, 0x3a, 0xbe, 0x4d, 0xc9, 0x5b, 0xbd,
	0x3b, 0x4b, 0x2b, 0xbe, 0x77, 0x1e, 0x90, 0x3e, 0x20, 0xd7, 0x92, 0x3b,
	0xc8, 0xea, 0x78, 0x3e, 0xea, 0x91, 0xf9, 0xbd, 0x52, 0x2d, 0xa1, 0xbd,
	0xf7, 0x2d, 0x1a, 0xbc, 0x82, 0x9a, 0xec, 0x3b, 0x3b, 0xb7, 0x01, 0x3e,
	0x7e, 0x64, 0xf9, 0x3a, 0x1d, 0xc5, 0x9a, 0x3d, 0xad, 0xdf, 0x54, 0xbe,
	0x9d, 0x9b, 0xec, 0x3d, 0xfd, 0xbb, 0x1f, 0x3e, 0xdc, 0x97, 0x9d, 0xbe,
	0x9d, 0x07, 0x47, 0xbe, 0xa2, 0xde, 0xfe, 0x3c, 0x54, 0xf4, 0x20, 0xbe,
	0x2d, 0x08, 0x96, 0x3e, 0xb2, 0xff, 0xff, 0xff, 0x04, 0x00, 0x00, 0x00,
	0x40, 0x00, 0x00, 0x00, 0x00, 0x00, 0x00, 0x00, 0xd2, 0xb6, 0x1e, 0x3e,
	0x2d, 0x7d, 0x0d, 0xbc, 0x40, 0xda, 0xf1, 0xbc, 0xb7, 0x30, 0xa0, 0x3e,
	0xeb, 0x8d, 0xbc, 0x3d, 0x64, 0x97, 0xaf, 0x3d, 0x71, 0xbb, 0x63, 0x3e,
	0x3c, 0x47, 0x30, 0x3e, 0x0a, 0x21, 0xa8, 0x3d, 0x6c, 0x16, 0x3d, 0x3e,
	0xad, 0x83, 0x15, 0xbb, 0x01, 0xe0, 0xc6, 0x3e, 0xf3, 0x5e, 0x86, 0xbc,
	0xf5, 0x53, 0x2b, 0xbe, 0xb4, 0x2b, 0x8f, 0xbd, 0x00, 0x00, 0x06, 0x00,
	0x08, 0x00, 0x04, 0x00, 0x06, 0x00, 0x00, 0x00, 0x04, 0x00, 0x00, 0x00,
	0x0c, 0x00, 0x00, 0x00, 0xbf, 0x5f, 0x19, 0x3d, 0x85, 0x8b, 0xbd, 0x3c,
	0xa7, 0x74, 0x67, 0x3e, 0xb8, 0xfb, 0xff, 0xff, 0x0f, 0x00, 0x00, 0x00,
	0x54, 0x4f, 0x43, 0x4f, 0x20, 0x43, 0x6f, 0x6e, 0x76, 0x65, 0x72, 0x74,
	0x65, 0x64, 0x2e, 0x00, 0x01, 0x00, 0x00, 0x00, 0x10, 0x00, 0x00, 0x00,
	0x0c, 0x00, 0x14, 0x00, 0x04, 0x00, 0x08, 0x00, 0x0c, 0x00, 0x10, 0x00,
	0x0c, 0x00, 0x00, 0x00, 0xf0, 0x00, 0x00, 0x00, 0xe4, 0x00, 0x00, 0x00,
	0xd8, 0x00, 0x00, 0x00, 0x04, 0x00, 0x00, 0x00, 0x03, 0x00, 0x00, 0x00,
	0x90, 0x00, 0x00, 0x00, 0x48, 0x00, 0x00, 0x00, 0x04, 0x00, 0x00, 0x00,
	0xce, 0xff, 0xff, 0xff, 0x00, 0x00, 0x00, 0x08, 0x18, 0x00, 0x00, 0x00,
	0x0c, 0x00, 0x00, 0x00, 0x04, 0x00, 0x00, 0x00, 0x1c, 0xfc, 0xff, 0xff,
	0x01, 0x00, 0x00, 0x00, 0x00, 0x00, 0x00, 0x00, 0x03, 0x00, 0x00, 0x00,
	0x07, 0x00, 0x00, 0x00, 0x08, 0x00, 0x00, 0x00, 0x09, 0x00, 0x00, 0x00,
	0x00, 0x00, 0x0e, 0x00, 0x14, 0x00, 0x00, 0x00, 0x08, 0x00, 0x0c, 0x00,
	0x07, 0x00, 0x10, 0x00, 0x0e, 0x00, 0x00, 0x00, 0x00, 0x00, 0x00, 0x08,
	0x1c, 0x00, 0x00, 0x00, 0x10, 0x00, 0x00, 0x00, 0x04, 0x00, 0x00, 0x00,
	0xba, 0xff, 0xff, 0xff, 0x00, 0x00, 0x00, 0x01, 0x01, 0x00, 0x00, 0x00,
	0x07, 0x00, 0x00, 0x00, 0x03, 0x00, 0x00, 0x00, 0x04, 0x00, 0x00, 0x00,
	0x05, 0x00, 0x00, 0x00, 0x06, 0x00, 0x00, 0x00, 0x00, 0x00, 0x0e, 0x00,
	0x16, 0x00, 0x00, 0x00, 0x08, 0x00, 0x0c, 0x00, 0x07, 0x00, 0x10, 0x00,
	0x0e, 0x00, 0x00, 0x00, 0x00, 0x00, 0x00, 0x08, 0x24, 0x00, 0x00, 0x00,
	0x18, 0x00, 0x00, 0x00, 0x0c, 0x00, 0x00, 0x00, 0x00, 0x00, 0x06, 0x00,
	0x08, 0x00, 0x07, 0x00, 0x06, 0x00, 0x00, 0x00, 0x00, 0x00, 0x00, 0x01,
	0x01, 0x00, 0x00, 0x00, 0x04, 0x00, 0x00, 0x00, 0x03, 0x00, 0x00, 0x00,
	0x01, 0x00, 0x00, 0x00, 0x02, 0x00, 0x00, 0x00, 0x03, 0x00, 0x00, 0x00,
	0x01, 0x00, 0x00, 0x00, 0x00, 0x00, 0x00, 0x00, 0x01, 0x00, 0x00, 0x00,
	0x01, 0x00, 0x00, 0x00, 0x0a, 0x00, 0x00, 0x00, 0x10, 0x03, 0x00, 0x00,
	0xa4, 0x02, 0x00, 0x00, 0x40, 0x02, 0x00, 0x00, 0xf4, 0x01, 0x00, 0x00,
	0xac, 0x01, 0x00, 0x00, 0x48, 0x01, 0x00, 0x00, 0xfc, 0x00, 0x00, 0x00,
	0xb4, 0x00, 0x00, 0x00, 0x50, 0x00, 0x00, 0x00, 0x04, 0x00, 0x00, 0x00,
	0x26, 0xfd, 0xff, 0xff, 0x3c, 0x00, 0x00, 0x00, 0x01, 0x00, 0x00, 0x00,
	0x0c, 0x00, 0x00, 0x00, 0x04, 0x00, 0x00, 0x00, 0x18, 0xfd, 0xff, 0xff,
	0x21, 0x00, 0x00, 0x00, 0x73, 0x65, 0x71, 0x75, 0x65, 0x6e, 0x74, 0x69,
	0x61, 0x6c, 0x5f, 0x33, 0x2f, 0x64, 0x65, 0x6e, 0x73, 0x65, 0x5f, 0x31,
	0x35, 0x2f, 0x4d, 0x61, 0x74, 0x4d, 0x75, 0x6c, 0x5f, 0x62, 0x69, 0x61,
	0x73, 0x00, 0x00, 0x00, 0x01, 0x00, 0x00, 0x00, 0x03, 0x00, 0x00, 0x00,
	0x6e, 0xfd, 0xff, 0xff, 0x50, 0x00, 0x00, 0x00, 0x09, 0x00, 0x00, 0x00,
	0x0c, 0x00, 0x00, 0x00, 0x04, 0x00, 0x00, 0x00, 0x60, 0xfd, 0xff, 0xff,
	0x35, 0x00, 0x00, 0x00, 0x73, 0x65, 0x71, 0x75, 0x65, 0x6e, 0x74, 0x69,
	0x61, 0x6c, 0x5f, 0x33, 0x2f, 0x64, 0x65, 0x6e, 0x73, 0x65, 0x5f, 0x31,
	0x35, 0x2f, 0x4d, 0x61, 0x74, 0x4d, 0x75, 0x6c, 0x2f, 0x52, 0x65, 0x61,
	0x64, 0x56, 0x61, 0x72, 0x69, 0x61, 0x62, 0x6c, 0x65, 0x4f, 0x70, 0x2f,
	0x74, 0x72, 0x61, 0x6e, 0x73, 0x70, 0x6f, 0x73, 0x65, 0x00, 0x00, 0x00,
	0x02, 0x00, 0x00, 0x00, 0x03, 0x00, 0x00, 0x00, 0x10, 0x00, 0x00, 0x00,
	0xce, 0xfd, 0xff, 0xff, 0x34, 0x00, 0x00, 0x00, 0x0a, 0x00, 0x00, 0x00,
	0x0c, 0x00, 0x00, 0x00, 0x04, 0x00, 0x00, 0x00, 0xc0, 0xfd, 0xff, 0xff,
	0x1a, 0x00, 0x00, 0x00, 0x73, 0x65, 0x71, 0x75, 0x65, 0x6e, 0x74, 0x69,
	0x61, 0x6c, 0x5f, 0x33, 0x2f, 0x64, 0x65, 0x6e, 0x73, 0x65, 0x5f, 0x31,
	0x34, 0x2f, 0x52, 0x65, 0x6c, 0x75, 0x00, 0x00, 0x02, 0x00, 0x00, 0x00,
	0x01, 0x00, 0x00, 0x00, 0x10, 0x00, 0x00, 0x00, 0x12, 0xfe, 0xff, 0xff,
	0x3c, 0x00, 0x00, 0x00, 0x02, 0x00, 0x00, 0x00, 0x0c, 0x00, 0x00, 0x00,
	0x04, 0x00, 0x00, 0x00, 0x04, 0xfe, 0xff, 0xff, 0x21, 0x00, 0x00, 0x00,
	0x73, 0x65, 0x71, 0x75, 0x65, 0x6e, 0x74, 0x69, 0x61, 0x6c, 0x5f, 0x33,
	0x2f, 0x64, 0x65, 0x6e, 0x73, 0x65, 0x5f, 0x31, 0x34, 0x2f, 0x4d, 0x61,
	0x74, 0x4d, 0x75, 0x6c, 0x5f, 0x62, 0x69, 0x61, 0x73, 0x00, 0x00, 0x00,
	0x01, 0x00, 0x00, 0x00, 0x10, 0x00, 0x00, 0x00, 0x5a, 0xfe, 0xff, 0xff,
	0x50, 0x00, 0x00, 0x00, 0x06, 0x00, 0x00, 0x00, 0x0c, 0x00, 0x00, 0x00,
	0x04, 0x00, 0x00, 0x00, 0x4c, 0xfe, 0xff, 0xff, 0x35, 0x00, 0x00, 0x00,
	0x73, 0x65, 0x71, 0x75, 0x65, 0x6e, 0x74, 0x69, 0x61, 0x6c, 0x5f, 0x33,
	0x2f, 0x64, 0x65, 0x6e, 0x73, 0x65, 0x5f, 0x31, 0x34, 0x2f, 0x4d, 0x61,
	0x74, 0x4d, 0x75, 0x6c, 0x2f, 0x52, 0x65, 0x61, 0x64, 0x56, 0x61, 0x72,
	0x69, 0x61, 0x62, 0x6c, 0x65, 0x4f, 0x70, 0x2f, 0x74, 0x72, 0x61, 0x6e,
	0x73, 0x70, 0x6f, 0x73, 0x65, 0x00, 0x00, 0x00, 0x02, 0x00, 0x00, 0x00,
	0x10, 0x00, 0x00, 0x00, 0x20, 0x00, 0x00, 0x00, 0xba, 0xfe, 0xff, 0xff,
	0x34, 0x00, 0x00, 0x00, 0x08, 0x00, 0x00, 0x00, 0x0c, 0x00, 0x00, 0x00,
	0x04, 0x00, 0x00, 0x00, 0xac, 0xfe, 0xff, 0xff, 0x1a, 0x00, 0x00, 0x00,
	0x73, 0x65, 0x71, 0x75, 0x65, 0x6e, 0x74, 0x69, 0x61, 0x6c, 0x5f, 0x33,
	0x2f, 0x64, 0x65, 0x6e, 0x73, 0x65, 0x5f, 0x31, 0x33, 0x2f, 0x52, 0x65,
	0x6c, 0x75, 0x00, 0x00, 0x02, 0x00, 0x00, 0x00, 0x01, 0x00, 0x00, 0x00,
	0x20, 0x00, 0x00, 0x00, 0xfe, 0xfe, 0xff, 0xff, 0x3c, 0x00, 0x00, 0x00,
	0x03, 0x00, 0x00, 0x00, 0x0c, 0x00, 0x00, 0x00, 0x04, 0x00, 0x00, 0x00,
	0xf0, 0xfe, 0xff, 0xff, 0x21, 0x00, 0x00, 0x00, 0x73, 0x65, 0x71, 0x75,
	0x65, 0x6e, 0x74, 0x69, 0x61, 0x6c, 0x5f, 0x33, 0x2f, 0x64, 0x65, 0x6e,
	0x73, 0x65, 0x5f, 0x31, 0x33, 0x2f, 0x4d, 0x61, 0x74, 0x4d, 0x75, 0x6c,
	0x5f, 0x62, 0x69, 0x61, 0x73, 0x00, 0x00, 0x00, 0x01, 0x00, 0x00, 0x00,
	0x20, 0x00, 0x00, 0x00, 0x46, 0xff, 0xff, 0xff, 0x50, 0x00, 0x00, 0x00,
	0x05, 0x00, 0x00, 0x00, 0x0c, 0x00, 0x00, 0x00, 0x04, 0x00, 0x00, 0x00,
	0x38, 0xff, 0xff, 0xff, 0x35, 0x00, 0x00, 0x00, 0x73, 0x65, 0x71, 0x75,
	0x65, 0x6e, 0x74, 0x69, 0x61, 0x6c, 0x5f, 0x33, 0x2f, 0x64, 0x65, 0x6e,
	0x73, 0x65, 0x5f, 0x31, 0x33, 0x2f, 0x4d, 0x61, 0x74, 0x4d, 0x75, 0x6c,
	0x2f, 0x52, 0x65, 0x61, 0x64, 0x56, 0x61, 0x72, 0x69, 0x61, 0x62, 0x6c,
	0x65, 0x4f, 0x70, 0x2f, 0x74, 0x72, 0x61, 0x6e, 0x73, 0x70, 0x6f, 0x73,
	0x65, 0x00, 0x00, 0x00, 0x02, 0x00, 0x00, 0x00, 0x20, 0x00, 0x00, 0x00,
	0x05, 0x00, 0x00, 0x00, 0xa6, 0xff, 0xff, 0xff, 0x48, 0x00, 0x00, 0x00,
	0x07, 0x00, 0x00, 0x00, 0x2c, 0x00, 0x00, 0x00, 0x0c, 0x00, 0x00, 0x00,
	0x08, 0x00, 0x0c, 0x00, 0x04, 0x00, 0x08, 0x00, 0x08, 0x00, 0x00, 0x00,
	0x10, 0x00, 0x00, 0x00, 0x04, 0x00, 0x00, 0x00, 0x01, 0x00, 0x00, 0x00,
	0x00, 0x00, 0x7f, 0x43, 0x01, 0x00, 0x00, 0x00, 0x00, 0x00, 0x00, 0x00,
	0x0f, 0x00, 0x00, 0x00, 0x64, 0x72, 0x6f, 0x70, 0x6f, 0x75, 0x74, 0x5f,
	0x33, 0x5f, 0x69, 0x6e, 0x70, 0x75, 0x74, 0x00, 0x02, 0x00, 0x00, 0x00,
	0x01, 0x00, 0x00, 0x00, 0x05, 0x00, 0x00, 0x00, 0x00, 0x00, 0x0e, 0x00,
	0x14, 0x00, 0x04, 0x00, 0x00, 0x00, 0x08, 0x00, 0x0c, 0x00, 0x10, 0x00,
	0x0e, 0x00, 0x00, 0x00, 0x28, 0x00, 0x00, 0x00, 0x04, 0x00, 0x00, 0x00,
	0x10, 0x00, 0x00, 0x00, 0x08, 0x00, 0x00, 0x00, 0x04, 0x00, 0x04, 0x00,
	0x04, 0x00, 0x00, 0x00, 0x08, 0x00, 0x00, 0x00, 0x49, 0x64, 0x65, 0x6e,
	0x74, 0x69, 0x74, 0x79, 0x00, 0x00, 0x00, 0x00, 0x02, 0x00, 0x00, 0x00,
	0x01, 0x00, 0x00, 0x00, 0x03, 0x00, 0x00, 0x00, 0x01, 0x00, 0x00, 0x00,
	0x10, 0x00, 0x00, 0x00, 0x00, 0x00, 0x0a, 0x00, 0x0c, 0x00, 0x07, 0x00,
	0x00, 0x00, 0x08, 0x00, 0x0a, 0x00, 0x00, 0x00, 0x00, 0x00, 0x00, 0x09,
	0x03, 0x00, 0x00, 0x00};
const int model_data_len = 4516;

float mean_array[5] = {448.42219827586206, 119.94876016073547, 371.3534482758621, 404.57586206896553, 532.4913793103449};
float std_array[5] = {498.66682684472164, 305.55809747027183, 472.45247738878936, 496.6377869506136, 681.1344285338947};
