
#ifdef __has_attribute
#define HAVE_ATTRIBUTE(x) __has_attribute(x)
#else
#define HAVE_ATTRIBUTE(x) 0
#endif
#if HAVE_ATTRIBUTE(aligned) || (defined(__GNUC__) && !defined(__clang__))
#define DATA_ALIGN_ATTRIBUTE __attribute__((aligned(4)))
#else
#define DATA_ALIGN_ATTRIBUTE
#endif

const unsigned char model_data[] DATA_ALIGN_ATTRIBUTE = {
	0x1c, 0x00, 0x00, 0x00, 0x54, 0x46, 0x4c, 0x33, 0x00, 0x00, 0x12, 0x00,
	0x1c, 0x00, 0x04, 0x00, 0x08, 0x00, 0x0c, 0x00, 0x10, 0x00, 0x14, 0x00,
	0x00, 0x00, 0x18, 0x00, 0x12, 0x00, 0x00, 0x00, 0x03, 0x00, 0x00, 0x00,
	0xe0, 0x14, 0x00, 0x00, 0x88, 0x10, 0x00, 0x00, 0x70, 0x10, 0x00, 0x00,
	0x34, 0x00, 0x00, 0x00, 0x04, 0x00, 0x00, 0x00, 0x01, 0x00, 0x00, 0x00,
	0x04, 0x00, 0x00, 0x00, 0xc8, 0xeb, 0xff, 0xff, 0x08, 0x00, 0x00, 0x00,
	0x0b, 0x00, 0x00, 0x00, 0x13, 0x00, 0x00, 0x00, 0x6d, 0x69, 0x6e, 0x5f,
	0x72, 0x75, 0x6e, 0x74, 0x69, 0x6d, 0x65, 0x5f, 0x76, 0x65, 0x72, 0x73,
	0x69, 0x6f, 0x6e, 0x00, 0x0c, 0x00, 0x00, 0x00, 0x30, 0x10, 0x00, 0x00,
	0x14, 0x10, 0x00, 0x00, 0x3c, 0x0f, 0x00, 0x00, 0xec, 0x0e, 0x00, 0x00,
	0xdc, 0x06, 0x00, 0x00, 0x4c, 0x06, 0x00, 0x00, 0x3c, 0x00, 0x00, 0x00,
	0x34, 0x00, 0x00, 0x00, 0x2c, 0x00, 0x00, 0x00, 0x24, 0x00, 0x00, 0x00,
	0x1c, 0x00, 0x00, 0x00, 0x04, 0x00, 0x00, 0x00, 0x1e, 0xf0, 0xff, 0xff,
	0x04, 0x00, 0x00, 0x00, 0x05, 0x00, 0x00, 0x00, 0x31, 0x2e, 0x35, 0x2e,
	0x30, 0x00, 0x00, 0x00, 0xcc, 0xeb, 0xff, 0xff, 0xd0, 0xeb, 0xff, 0xff,
	0xd4, 0xeb, 0xff, 0xff, 0xd8, 0xeb, 0xff, 0xff, 0x42, 0xf0, 0xff, 0xff,
	0x04, 0x00, 0x00, 0x00, 0x00, 0x06, 0x00, 0x00, 0xe5, 0x36, 0x87, 0x3e,
	0xd9, 0x12, 0x1a, 0x3e, 0xb1, 0x74, 0x14, 0x3e, 0x52, 0x6d, 0x8e, 0x3e,
	0x0f, 0xa7, 0x81, 0x3e, 0xdc, 0x8a, 0x13, 0x3e, 0x8b, 0x3a, 0x44, 0x3e,
	0x8b, 0x98, 0x03, 0x3e, 0xc8, 0xff, 0x95, 0x3d, 0x09, 0x28, 0x17, 0x3e,
	0xa0, 0x65, 0xa6, 0xbe, 0x86, 0x42, 0x7d, 0xbe, 0xa4, 0x40, 0x31, 0x3e,
	0xa3, 0xdb, 0xbc, 0x3d, 0x1f, 0x7f, 0xa2, 0xbd, 0xc8, 0x77, 0x3f, 0xbe,
	0xbe, 0x1e, 0x5e, 0x3e, 0xc1, 0x6f, 0xa1, 0x3d, 0xc4, 0x49, 0x53, 0x3d,
	0x4b, 0x01, 0xf7, 0x3d, 0x2b, 0x24, 0xf4, 0xbd, 0xcb, 0x66, 0x8b, 0xbe,
	0xca, 0x8b, 0x70, 0xbe, 0x7a, 0xb3, 0xaa, 0xbe, 0x87, 0xcd, 0x28, 0x3d,
	0x24, 0x0b, 0xbf, 0x3c, 0x8f, 0xd7, 0x77, 0xbe, 0xb5, 0x3a, 0x77, 0xbe,
	0x8c, 0xa5, 0xa3, 0x3e, 0x7c, 0x36, 0x24, 0x3d, 0x72, 0x00, 0x86, 0x3d,
	0xe2, 0x13, 0x23, 0xbd, 0x83, 0x32, 0x0b, 0xbd, 0x88, 0x71, 0xb1, 0x3d,
	0x2a, 0x8c, 0xbf, 0xba, 0x43, 0xcd, 0x2c, 0xbe, 0x06, 0x69, 0x8a, 0xbe,
	0x99, 0xb9, 0xec, 0xbd, 0xb3, 0xdb, 0x46, 0x3e, 0xe5, 0x6b, 0x77, 0x3e,
	0xee, 0xc9, 0x90, 0xbe, 0xa1, 0xbd, 0x57, 0x3e, 0x7e, 0xc1, 0x4e, 0xbe,
	0x6d, 0xad, 0x4c, 0x3d, 0x24, 0xbc, 0xaa, 0x3e, 0xb6, 0x3b, 0x86, 0xbe,
	0x12, 0x82, 0xc2, 0x3d, 0x67, 0x5f, 0x9d, 0xbe, 0x08, 0xeb, 0x63, 0xbc,
	0xec, 0xcd, 0xc2, 0x3b, 0xaf, 0xab, 0x45, 0xbe, 0xdd, 0x30, 0xc8, 0xbd,
	0x3a, 0xc0, 0x8e, 0x3e, 0x23, 0x71, 0xb7, 0xbd, 0x59, 0xc9, 0x46, 0xbe,
	0xa2, 0x4c, 0x5b, 0x3e, 0x33, 0x0e, 0x71, 0xbe, 0x3e, 0xba, 0xcb, 0x3c,
	0x43, 0xd4, 0xad, 0x3e, 0x0c, 0x62, 0xe3, 0x3d, 0xa4, 0xcb, 0x6b, 0xbc,
	0xb2, 0xdf, 0x83, 0x3e, 0xff, 0xd7, 0xad, 0x3d, 0xfc, 0x87, 0x93, 0x3e,
	0x5b, 0x9b, 0xc2, 0x3d, 0x71, 0xa4, 0x90, 0x3e, 0x0a, 0x77, 0x4a, 0xbe,
	0x80, 0x0c, 0xb6, 0xbd, 0x01, 0x75, 0xde, 0xbd, 0x5c, 0xae, 0x07, 0xbc,
	0x04, 0x31, 0x54, 0xbe, 0x32, 0xa0, 0x81, 0x3e, 0xac, 0x92, 0x97, 0x3e,
	0xcd, 0x61, 0x16, 0x3e, 0x95, 0xf9, 0x75, 0xbe, 0xce, 0x74, 0x64, 0x3e,
	0x9f, 0x08, 0x08, 0x3f, 0x3a, 0x0d, 0x9d, 0xbe, 0x3a, 0xda, 0x91, 0xbc,
	0x8c, 0xd3, 0x5d, 0x3e, 0xf4, 0xa3, 0x86, 0x3e, 0x6d, 0xef, 0x5f, 0x3e,
	0x19, 0x5e, 0x7b, 0xbe, 0xf7, 0x82, 0xa2, 0xbd, 0x29, 0xcf, 0xf4, 0x3e,
	0x3b, 0xea, 0x88, 0xbe, 0xbc, 0xe1, 0x8e, 0x3e, 0x93, 0x5e, 0x93, 0x3e,
	0xe4, 0xa7, 0x7a, 0x3d, 0xd4, 0x6e, 0x8c, 0xbe, 0xd2, 0x58, 0x27, 0xbe,
	0x26, 0xb0, 0x1e, 0x3e, 0x04, 0x58, 0xc3, 0x3d, 0xe4, 0xa7, 0x24, 0xbe,
	0x5c, 0x77, 0x5a, 0x3d, 0xed, 0xbd, 0xcc, 0x3d, 0x31, 0xfa, 0x57, 0x3e,
	0xd7, 0x45, 0x7d, 0xbe, 0x17, 0x28, 0x17, 0x3e, 0x72, 0xd6, 0x9e, 0x3e,
	0xa8, 0x87, 0xe3, 0x3d, 0x34, 0x38, 0x35, 0xbe, 0xad, 0x80, 0x15, 0x3e,
	0x82, 0xd8, 0xbe, 0x3e, 0xdb, 0x47, 0x81, 0x3e, 0x53, 0x17, 0x3f, 0xbe,
	0xa5, 0x3f, 0x1d, 0x3a, 0x05, 0xdc, 0x8b, 0x3e, 0xa5, 0x23, 0xa2, 0xbe,
	0x5f, 0x01, 0x8b, 0x3d, 0x8b, 0x57, 0xd7, 0xbe, 0xb5, 0xc6, 0xb8, 0x3d,
	0x7e, 0x90, 0xba, 0xbe, 0xc5, 0x50, 0x69, 0x3d, 0xef, 0x4a, 0xa3, 0xbe,
	0xe9, 0x54, 0x7f, 0xbe, 0x83, 0x65, 0x1a, 0xbd, 0xa7, 0x25, 0x4d, 0x3e,
	0x1e, 0x9a, 0x8b, 0xbe, 0x73, 0xa8, 0x1f, 0x3e, 0xf9, 0xd7, 0xe4, 0x3e,
	0xe2, 0x84, 0x97, 0xbe, 0xe7, 0xd7, 0xba, 0x3e, 0x01, 0x40, 0x4b, 0xbe,
	0xde, 0x6d, 0xb4, 0x3e, 0x28, 0xa6, 0x44, 0x3e, 0x93, 0x48, 0xd7, 0xbd,
	0x72, 0x6e, 0x01, 0x3e, 0xe4, 0xf2, 0x2d, 0xbe, 0x98, 0xc9, 0xb0, 0xbc,
	0x1a, 0xbb, 0xc1, 0x3d, 0x90, 0xa2, 0x85, 0xbe, 0x64, 0x27, 0xb4, 0xbe,
	0x7b, 0xc4, 0x14, 0x3d, 0x55, 0x59, 0x50, 0xbd, 0xb5, 0xff, 0xbd, 0x3d,
	0x89, 0x36, 0x0a, 0xbf, 0x38, 0x09, 0x04, 0xbc, 0xd8, 0x9c, 0x5b, 0x3b,
	0x8e, 0xdf, 0x42, 0x3e, 0x2e, 0x32, 0x4b, 0xbe, 0x62, 0x2b, 0xb9, 0xbd,
	0xab, 0xbf, 0x90, 0xbd, 0x62, 0x9d, 0xb8, 0xbd, 0x15, 0x2f, 0xcd, 0x3e,
	0xe4, 0xaa, 0xe1, 0xbd, 0x94, 0x63, 0x6f, 0x3d, 0x5c, 0x76, 0x20, 0xbe,
	0xf8, 0xe2, 0x06, 0xbf, 0xff, 0x00, 0xa2, 0xbd, 0xa8, 0x24, 0xd1, 0x3d,
	0x3c, 0xb7, 0x84, 0xbd, 0x56, 0x3a, 0x88, 0xbe, 0x77, 0x6e, 0x2f, 0xbe,
	0x6d, 0x26, 0xc6, 0x3d, 0x22, 0x94, 0x73, 0xbe, 0x34, 0xfa, 0x98, 0xbd,
	0xbb, 0xf4, 0x5e, 0xbe, 0xbd, 0x3a, 0x3e, 0x3e, 0x9e, 0x1d, 0x6e, 0xbd,
	0x5d, 0xcb, 0x93, 0x3e, 0x3c, 0xb1, 0x4d, 0xbe, 0xe0, 0x5f, 0x8d, 0xbd,
	0x33, 0x2e, 0xcf, 0x3d, 0xf5, 0xa7, 0x45, 0x3d, 0xab, 0x1f, 0x60, 0x3d,
	0x1d, 0xea, 0xc0, 0xbd, 0xa3, 0x65, 0xb9, 0xbd, 0xb9, 0xd9, 0x31, 0x3e,
	0x76, 0x29, 0x54, 0x3e, 0xd0, 0xca, 0x70, 0xbe, 0x1f, 0xfc, 0x22, 0xbd,
	0x3b, 0x5b, 0xa9, 0x3d, 0xff, 0x1d, 0xa1, 0xbe, 0x45, 0x01, 0x89, 0xbe,
	0x3f, 0x89, 0x47, 0x3e, 0x28, 0x3c, 0x4c, 0x3e, 0xb1, 0xdd, 0x1f, 0x3e,
	0x52, 0x77, 0x7d, 0x3e, 0xb5, 0x30, 0xb6, 0x3e, 0x03, 0xf6, 0xa6, 0x3e,
	0x48, 0x65, 0xf1, 0xbc, 0x51, 0xac, 0xb6, 0x3e, 0x60, 0xe5, 0xc5, 0x3a,
	0xac, 0x9e, 0x1b, 0x3e, 0xea, 0xe2, 0x96, 0xbc, 0xba, 0x01, 0x6a, 0x3e,
	0xfd, 0x70, 0xdf, 0xbd, 0x7d, 0x8b, 0x08, 0x3e, 0x74, 0x8b, 0x82, 0x3e,
	0x66, 0x88, 0xd5, 0xbd, 0x75, 0x0a, 0xbe, 0xbd, 0x3f, 0xb5, 0x04, 0xbd,
	0x7d, 0x83, 0x59, 0x3e, 0x24, 0xc3, 0xa6, 0x3e, 0xb3, 0xf4, 0xb7, 0xbd,
	0x16, 0xfa, 0xe1, 0xbd, 0xa8, 0xdc, 0xd8, 0xbd, 0x40, 0xa9, 0x99, 0x3e,
	0xe8, 0xe2, 0x6c, 0x3e, 0xec, 0x2e, 0x19, 0xbe, 0x6f, 0x41, 0xad, 0xbc,
	0xa0, 0x86, 0x9c, 0x3e, 0x0a, 0xba, 0x7d, 0x3e, 0x48, 0x86, 0x02, 0x3e,
	0xb0, 0x6f, 0x71, 0xbe, 0x70, 0x5b, 0x5d, 0xbe, 0xef, 0xe1, 0x9d, 0xbe,
	0x10, 0x7f, 0x1d, 0x3e, 0x7f, 0xc0, 0x61, 0x3d, 0xf2, 0x41, 0x90, 0xbd,
	0x5d, 0x35, 0x5b, 0x3e, 0xbf, 0x2c, 0x24, 0x3e, 0x99, 0xfd, 0xa8, 0x3e,
	0x60, 0x49, 0x38, 0xbe, 0x5a, 0x81, 0x71, 0x3d, 0x81, 0x56, 0xc8, 0x3e,
	0x4b, 0xea, 0x83, 0x3d, 0xd4, 0x4f, 0x32, 0xbe, 0x63, 0x3b, 0x63, 0xbe,
	0xaa, 0xbf, 0x19, 0x3d, 0x36, 0xd9, 0x7e, 0x3c, 0xde, 0x56, 0xd5, 0x3d,
	0x43, 0x4d, 0x91, 0xbe, 0xf4, 0x4f, 0xa8, 0x3d, 0x09, 0x6a, 0x11, 0xbe,
	0xc9, 0x2a, 0x11, 0xbd, 0xb6, 0x32, 0x41, 0x3e, 0x2f, 0x20, 0x97, 0x3e,
	0xa7, 0xd3, 0x36, 0xbe, 0x21, 0xf4, 0xe8, 0xbd, 0xb9, 0xa7, 0x40, 0xbe,
	0x54, 0x9d, 0xf9, 0x3e, 0x44, 0x2f, 0x8e, 0x3e, 0x0c, 0x2f, 0xdc, 0x3d,
	0x5d, 0x5c, 0x21, 0xbe, 0x5c, 0x44, 0x3b, 0x3e, 0xdd, 0xd5, 0x24, 0xbd,
	0x7d, 0xdd, 0xbb, 0x3b, 0xb1, 0x4b, 0xe0, 0x3d, 0x96, 0x31, 0x97, 0xbe,
	0x16, 0xfb, 0x45, 0x3e, 0x93, 0x16, 0x73, 0xbe, 0xfe, 0xdf, 0x52, 0x3e,
	0xd4, 0x4e, 0x66, 0x3e, 0xc9, 0x9f, 0xae, 0xbd, 0x02, 0x72, 0x96, 0xbe,
	0x5a, 0x53, 0x0f, 0x3e, 0x77, 0xfc, 0x11, 0xbe, 0x2a, 0x01, 0xba, 0xbc,
	0x31, 0x6a, 0xc3, 0xbe, 0xb6, 0xfb, 0x7c, 0xbe, 0x1e, 0x69, 0x73, 0xbe,
	0x13, 0xc1, 0x7c, 0xbe, 0x9d, 0xf0, 0x0b, 0x3c, 0x69, 0xab, 0xe0, 0x3d,
	0xf4, 0x23, 0x41, 0xbe, 0x67, 0x1c, 0xd1, 0xbc, 0x55, 0xa1, 0x7c, 0x3e,
	0x9d, 0xc0, 0xd1, 0x3d, 0x55, 0x03, 0x0d, 0x3d, 0x91, 0xc3, 0x0b, 0xbb,
	0x1f, 0x11, 0x84, 0x3e, 0x60, 0xde, 0x4b, 0x3e, 0xba, 0x6c, 0x2b, 0x3e,
	0x02, 0xca, 0xab, 0xbe, 0xa9, 0xb3, 0xb7, 0xbe, 0x30, 0x1e, 0x9f, 0x3c,
	0xeb, 0x7d, 0xc9, 0x3e, 0x5d, 0xc2, 0xd3, 0xbd, 0xc3, 0x26, 0x15, 0xbe,
	0xc0, 0x6b, 0x92, 0xbe, 0x4f, 0x81, 0xb4, 0xbd, 0x24, 0xe9, 0xd5, 0x3d,
	0xd4, 0x94, 0x70, 0x3e, 0xea, 0xd9, 0xd7, 0x3c, 0x02, 0x79, 0x4a, 0x3e,
	0xf5, 0x46, 0x1c, 0xbd, 0xc4, 0x11, 0x12, 0x3e, 0x86, 0xc4, 0x0b, 0xbe,
	0x4f, 0xce, 0xb8, 0x3e, 0x7d, 0xd4, 0x0a, 0x3e, 0xc7, 0x84, 0x30, 0x3d,
	0xc9, 0xb8, 0x70, 0x3e, 0x84, 0x15, 0x8f, 0x3e, 0x38, 0x2f, 0x56, 0x3e,
	0xb0, 0xca, 0x24, 0x3e, 0xe7, 0x77, 0xc9, 0x3e, 0x47, 0xa9, 0x35, 0x3e,
	0x3a, 0xc4, 0xe2, 0xbd, 0x6c, 0xfd, 0x6e, 0xbe, 0x67, 0x82, 0x29, 0x3e,
	0xf0, 0xc3, 0x92, 0xbe, 0x73, 0xb8, 0xf3, 0x3d, 0xe3, 0x06, 0xac, 0xbd,
	0xd3, 0xbe, 0x75, 0xbe, 0xac, 0xc6, 0x9f, 0xbd, 0x56, 0x9b, 0x06, 0xbe,
	0x6b, 0x13, 0xa1, 0xbe, 0xc0, 0xd5, 0x8e, 0xbe, 0x4a, 0x91, 0x53, 0x3e,
	0x74, 0x9d, 0x41, 0xbe, 0x36, 0xb9, 0x37, 0xbc, 0x28, 0x59, 0xaa, 0x3d,
	0xb4, 0x11, 0x40, 0x3e, 0x47, 0xb8, 0x0e, 0xbd, 0x22, 0xae, 0xe4, 0xbb,
	0xaa, 0x03, 0xd7, 0xbe, 0xc3, 0xb6, 0x8e, 0xbe, 0xbc, 0x43, 0x90, 0xbe,
	0xd7, 0x04, 0x87, 0xbe, 0x68, 0xbc, 0x5b, 0xbe, 0xf3, 0xf3, 0xbb, 0xbd,
	0x12, 0x59, 0xc5, 0x3c, 0x1a, 0x0d, 0xcb, 0xbe, 0xc5, 0xd2, 0x8d, 0xbe,
	0xd5, 0xba, 0xc1, 0x3e, 0x0f, 0x5a, 0x0e, 0x3e, 0x41, 0x64, 0xf4, 0xbd,
	0xc4, 0xba, 0x88, 0xbe, 0x22, 0x4d, 0x63, 0x3d, 0xd1, 0x04, 0x33, 0x3e,
	0x76, 0xe2, 0xfe, 0xbd, 0xa8, 0x29, 0x45, 0xbe, 0x02, 0x25, 0x88, 0xbe,
	0x10, 0x10, 0x8c, 0xbe, 0x37, 0x6f, 0x05, 0xbe, 0x77, 0xd9, 0xda, 0xbd,
	0xf9, 0x51, 0x02, 0x3f, 0xf4, 0xeb, 0x33, 0xbc, 0xf9, 0x4b, 0xc4, 0xbd,
	0xc3, 0x15, 0x12, 0xbe, 0xb7, 0x6d, 0x25, 0x3d, 0x2d, 0x9d, 0xd3, 0xbc,
	0x19, 0xe9, 0x1b, 0xbd, 0x4c, 0x91, 0x6b, 0xbe, 0x6f, 0x8e, 0xd4, 0xbe,
	0x4c, 0x2b, 0xdf, 0x3b, 0x2d, 0xcd, 0x93, 0x3e, 0x20, 0xe3, 0xa2, 0xbd,
	0x0f, 0x13, 0x83, 0xbc, 0x34, 0xb8, 0x5a, 0xbd, 0x47, 0xa2, 0xaf, 0x3e,
	0xfd, 0xd9, 0xc9, 0xbe, 0xab, 0x62, 0x62, 0xbd, 0xe8, 0x93, 0x0f, 0xbe,
	0x85, 0x54, 0xf5, 0xbd, 0xce, 0x62, 0xb5, 0x3d, 0x50, 0x60, 0xef, 0x3d,
	0x0e, 0x4e, 0x78, 0xbe, 0xa8, 0xab, 0x7d, 0x3d, 0x31, 0x57, 0xbd, 0x3e,
	0xcd, 0x90, 0x79, 0x3d, 0x06, 0xda, 0x17, 0x3e, 0x33, 0x10, 0x72, 0xbe,
	0xd3, 0x9e, 0x87, 0x3e, 0x37, 0x94, 0x67, 0xbd, 0xa0, 0x20, 0x16, 0x3d,
	0x23, 0x54, 0x09, 0x3e, 0x2d, 0xef, 0xa8, 0x3e, 0x1b, 0x78, 0xa6, 0x3e,
	0xf5, 0x89, 0x83, 0x3d, 0x49, 0xba, 0x3d, 0x3e, 0xb7, 0x25, 0x96, 0x3d,
	0xab, 0x9b, 0xc6, 0x3e, 0x20, 0x51, 0x8c, 0xbd, 0xc5, 0x9e, 0x6d, 0x3e,
	0x77, 0xd5, 0x2b, 0xbb, 0x7f, 0x75, 0x41, 0x3e, 0x31, 0x73, 0x96, 0xbe,
	0x57, 0xb4, 0x95, 0xbe, 0x24, 0xd9, 0x5c, 0xbe, 0x33, 0xef, 0x07, 0xbd,
	0xd9, 0x84, 0x8a, 0x3e, 0xaf, 0x0a, 0x43, 0xbd, 0xa0, 0x67, 0x47, 0x3d,
	0xd5, 0x41, 0x85, 0x3d, 0xda, 0x70, 0x31, 0x3e, 0x48, 0xb6, 0xa3, 0x3e,
	0x87, 0x09, 0x9c, 0xbd, 0x8d, 0x29, 0x96, 0x3e, 0x02, 0x60, 0x81, 0x3e,
	0xfb, 0xd3, 0x73, 0xbe, 0x10, 0xa5, 0x3f, 0x3c, 0x4e, 0xf6, 0xff, 0xff,
	0x04, 0x00, 0x00, 0x00, 0x80, 0x00, 0x00, 0x00, 0x34, 0xc9, 0xa3, 0x3d,
	0x4f, 0x57, 0x20, 0x3c, 0xbf, 0x80, 0x0a, 0xbe, 0xea, 0xd2, 0x7e, 0xbd,
	0x94, 0x0d, 0x53, 0xbd, 0x48, 0xde, 0x14, 0x3c, 0x6c, 0x22, 0x99, 0xbc,
	0x13, 0x86, 0x2a, 0x3e, 0x4e, 0xce, 0x8f, 0xbe, 0x52, 0xe0, 0x99, 0x3d,
	0xd7, 0x18, 0xed, 0xbd, 0x3f, 0x17, 0x56, 0xbd, 0xdb, 0x3a, 0xa4, 0xbc,
	0xbb, 0xc4, 0x0f, 0xbe, 0x53, 0x15, 0x18, 0x3e, 0x09, 0x25, 0xb3, 0xbd,
	0x16, 0x04, 0x7b, 0x3e, 0xaa, 0x3e, 0x2d, 0xbd, 0x3a, 0x64, 0x37, 0x3e,
	0xac, 0x0f, 0x34, 0xbe, 0x01, 0x35, 0xbc, 0x3c, 0xb6, 0x61, 0xea, 0x3c,
	0xa4, 0xfa, 0xb6, 0xbc, 0x43, 0x46, 0x17, 0x3e, 0x61, 0x11, 0x27, 0x3d,
	0x81, 0x78, 0x8d, 0xbd, 0xf0, 0xeb, 0xd9, 0xbc, 0x5f, 0xd5, 0x19, 0x3d,
	0x91, 0x27, 0x4f, 0x3c, 0xa7, 0x74, 0x18, 0x3e, 0xa6, 0x16, 0xd8, 0xbd,
	0xe5, 0xcb, 0x40, 0x3e, 0xda, 0xf6, 0xff, 0xff, 0x04, 0x00, 0x00, 0x00,
	0x00, 0x08, 0x00, 0x00, 0x1d, 0xe4, 0x82, 0x3e, 0xf8, 0x72, 0xde, 0xbd,
	0x20, 0x5e, 0x87, 0x3d, 0xfe, 0x24, 0x43, 0x3e, 0x4e, 0x06, 0x26, 0xbe,
	0x85, 0x71, 0xe3, 0xbd, 0xb6, 0x66, 0x0a, 0x3e, 0xa7, 0xd9, 0xc2, 0xbd,
	0x6b, 0x6f, 0x96, 0xbc, 0xb6, 0x92, 0x59, 0xbe, 0xbd, 0x8f, 0x91, 0xbc,
	0x19, 0x44, 0xa2, 0x3d, 0xee, 0x09, 0x74, 0xbe, 0x4f, 0x4e, 0xab, 0x3e,
	0x84, 0xdf, 0x77, 0xbe, 0x47, 0x64, 0xfb, 0xbd, 0x5c, 0xce, 0x8a, 0xbe,
	0xf7, 0x08, 0x77, 0xbd, 0x19, 0x63, 0x2b, 0x3e, 0x8c, 0x5b, 0x0b, 0x3e,
	0xf6, 0xfe, 0x16, 0x3d, 0x2c, 0x12, 0x23, 0x3e, 0x41, 0x2f, 0x71, 0xbe,
	0x5b, 0x62, 0x3f, 0xbe, 0xd5, 0x4e, 0x38, 0xbd, 0x45, 0x52, 0x13, 0x3e,
	0xd5, 0xb8, 0x69, 0x3e, 0xea, 0xc9, 0x86, 0x3e, 0x39, 0x50, 0x51, 0x3c,
	0x6d, 0x29, 0x43, 0xbe, 0x3a, 0xed, 0x97, 0xbe, 0x16, 0x48, 0x08, 0xbd,
	0x72, 0x15, 0x88, 0x3e, 0xc3, 0x82, 0x39, 0xbe, 0x18, 0x85, 0x21, 0xbd,
	0x68, 0x41, 0x50, 0xbe, 0xea, 0x30, 0x76, 0x3d, 0x5f, 0xcb, 0x3e, 0xbd,
	0xc4, 0x91, 0xf2, 0x3d, 0x43, 0x24, 0x7d, 0xbe, 0x5f, 0xa8, 0x8b, 0x3e,
	0x77, 0x48, 0xbd, 0x3e, 0x4c, 0x5c, 0xda, 0x3d, 0x6c, 0x0c, 0x6d, 0x3e,
	0xc4, 0x8c, 0xa8, 0x3e, 0x98, 0x35, 0x16, 0xbd, 0x6b, 0x72, 0x87, 0xbe,
	0x3a, 0x39, 0x4b, 0xbe, 0xf2, 0x34, 0x3f, 0xbd, 0x08, 0xdc, 0x8f, 0xbd,
	0x0f, 0x82, 0xcf, 0xbd, 0x42, 0xaf, 0x93, 0x3d, 0x05, 0x9e, 0xa0, 0xbb,
	0xf3, 0x87, 0xef, 0x3d, 0x3e, 0x6a, 0x14, 0xbe, 0x56, 0x3d, 0x8a, 0xbe,
	0x10, 0xf8, 0x45, 0xbe, 0xdc, 0xca, 0xb2, 0xbd, 0xfa, 0xc5, 0xe3, 0xbd,
	0x72, 0xa4, 0xa6, 0xbe, 0x5c, 0x43, 0xe3, 0x3c, 0xd5, 0x46, 0x2c, 0xbe,
	0xd4, 0x52, 0x87, 0x3e, 0xeb, 0x32, 0x93, 0xbe, 0xda, 0x0e, 0x87, 0x3e,
	0xc4, 0xb7, 0xee, 0xbb, 0x39, 0x77, 0xc8, 0xbd, 0x60, 0x23, 0xfb, 0x3d,
	0x86, 0xbd, 0xfe, 0x3d, 0x1c, 0x0b, 0x72, 0x3e, 0x3d, 0x7c, 0xa4, 0x3d,
	0xc5, 0xa2, 0xdf, 0xbd, 0x85, 0xaf, 0x77, 0x3d, 0xe9, 0x54, 0x6f, 0xbe,
	0x04, 0x89, 0x0b, 0xbe, 0x74, 0x40, 0x5d, 0x3d, 0xbc, 0x8c, 0x8e, 0xbe,
	0x7e, 0xf6, 0x35, 0xbe, 0x30, 0x5b, 0x21, 0x3e, 0xd9, 0xf2, 0xd0, 0xbd,
	0xb8, 0x7f, 0x80, 0x3e, 0xd8, 0xb2, 0x30, 0x3e, 0x61, 0x8e, 0xd5, 0xbd,
	0x8c, 0x1f, 0x35, 0xbe, 0x0b, 0x17, 0x9a, 0xbe, 0xfc, 0xf2, 0xe2, 0x3d,
	0xa4, 0x1e, 0x2c, 0x3e, 0x26, 0xee, 0xa8, 0xbd, 0x30, 0x3f, 0x44, 0xbe,
	0xfe, 0x57, 0x35, 0x3d, 0xd2, 0xf0, 0xc5, 0x3d, 0x15, 0x37, 0x14, 0xbe,
	0xda, 0x80, 0x45, 0x3e, 0x27, 0x3f, 0x1c, 0xbe, 0x08, 0x6c, 0x69, 0x3e,
	0x60, 0xdb, 0x2e, 0x3e, 0x4e, 0x4c, 0x8a, 0xbe, 0x6c, 0x2f, 0xee, 0x3b,
	0x53, 0x33, 0x85, 0xbe, 0x1f, 0xc8, 0xa9, 0x3c, 0x1d, 0xce, 0x5d, 0xbd,
	0x5e, 0xbf, 0x05, 0xbe, 0xb7, 0x29, 0xc1, 0x3d, 0xc3, 0x81, 0x4b, 0x3e,
	0x2d, 0x50, 0x98, 0x3d, 0x06, 0x50, 0x8e, 0xbd, 0xe6, 0x92, 0x85, 0x3d,
	0x41, 0x3d, 0xa9, 0x3d, 0x63, 0xf8, 0xc1, 0x3e, 0xc5, 0x68, 0x1c, 0xbd,
	0xbb, 0x36, 0x49, 0xbd, 0x2a, 0xed, 0xa9, 0xbe, 0x6f, 0x88, 0x3a, 0xbe,
	0x89, 0x10, 0x80, 0xbd, 0xe6, 0x40, 0x34, 0x3e, 0x28, 0x22, 0xb5, 0x3c,
	0xbc, 0xbf, 0x3d, 0x3e, 0xb7, 0xaa, 0x6c, 0x3e, 0x5d, 0xce, 0xca, 0xbd,
	0xa6, 0x20, 0x67, 0xbe, 0x6b, 0xd1, 0x0b, 0xbe, 0x30, 0xfa, 0xc2, 0xbc,
	0xce, 0x40, 0xd6, 0x3c, 0xae, 0xac, 0xaa, 0x3e, 0xfc, 0x8d, 0x1b, 0x3e,
	0x9f, 0xb2, 0xa2, 0xbb, 0x27, 0xb1, 0x98, 0xbd, 0x29, 0x97, 0x0a, 0xbe,
	0xa0, 0x8f, 0x85, 0xbd, 0x7a, 0x27, 0x9d, 0xbe, 0x90, 0xc2, 0xc3, 0x3d,
	0x50, 0xfe, 0xaa, 0xbe, 0x13, 0xb0, 0xad, 0xbe, 0x7d, 0x64, 0x3f, 0xbe,
	0xb7, 0xbe, 0xb4, 0x3e, 0x2f, 0x6d, 0x1a, 0x3e, 0xbd, 0x54, 0xf0, 0x3d,
	0x30, 0x5c, 0xac, 0xbd, 0x32, 0xba, 0x2b, 0x3e, 0x5b, 0x36, 0x15, 0x3e,
	0x98, 0xeb, 0x96, 0xbe, 0x54, 0x9f, 0x15, 0x3d, 0x52, 0xf6, 0xad, 0xbe,
	0x79, 0x04, 0x9e, 0xbe, 0x70, 0x02, 0x67, 0xbd, 0x8f, 0x5b, 0x8d, 0xbe,
	0x64, 0x32, 0x51, 0x3e, 0xd9, 0xe7, 0x3e, 0xbe, 0x88, 0x79, 0xb5, 0xbe,
	0xb7, 0xc0, 0x4a, 0x3e, 0x99, 0xe9, 0x0d, 0x3e, 0x30, 0xba, 0xa5, 0xbd,
	0xe2, 0xda, 0xec, 0x3c, 0x56, 0x0b, 0xec, 0x3c, 0x32, 0xb2, 0x80, 0xbd,
	0x2e, 0xaf, 0xf8, 0xbd, 0x5b, 0x11, 0x98, 0xbe, 0x01, 0xf1, 0xb5, 0xbe,
	0x4f, 0x3f, 0x9a, 0xbe, 0xd0, 0xe1, 0xa6, 0xbe, 0xb7, 0xe5, 0xb8, 0xbe,
	0x74, 0x57, 0x2c, 0xbd, 0x80, 0xf3, 0x69, 0x3c, 0x80, 0xc0, 0x97, 0x3e,
	0x03, 0x1a, 0xe1, 0xbe, 0xac, 0x6e, 0x88, 0x3a, 0x0c, 0xd0, 0xe2, 0x3c,
	0x22, 0x51, 0x54, 0x3d, 0x8c, 0xb5, 0x22, 0xbe, 0xbc, 0xc6, 0x9b, 0x3e,
	0xd9, 0x25, 0xec, 0x3d, 0xaf, 0x9a, 0x90, 0xbe, 0x78, 0xc7, 0x27, 0x3e,
	0xaf, 0x75, 0xa3, 0xbe, 0x59, 0x2c, 0x7b, 0x3d, 0x72, 0x63, 0x9a, 0xbe,
	0x4a, 0x21, 0x5e, 0xbe, 0x57, 0x85, 0x5d, 0x3e, 0xd7, 0x39, 0xa9, 0x3e,
	0x7c, 0xe4, 0x55, 0xbe, 0xb2, 0x97, 0xa7, 0x3e, 0x37, 0x3f, 0xa7, 0xbd,
	0xac, 0xe9, 0x80, 0xbc, 0x0f, 0x62, 0xea, 0x3d, 0x6c, 0xaa, 0x8f, 0x3e,
	0x32, 0x2a, 0x9f, 0xbb, 0x5a, 0xf8, 0x7f, 0xba, 0x16, 0x2d, 0xb2, 0xbe,
	0xa3, 0x0a, 0xf3, 0xbc, 0x08, 0x15, 0xa9, 0x3d, 0x43, 0xd9, 0x9c, 0xbb,
	0x4c, 0x49, 0x31, 0xbe, 0x1a, 0x37, 0x95, 0x3e, 0x2d, 0xe4, 0xe5, 0xbc,
	0x78, 0xec, 0xfc, 0x3d, 0xfb, 0xeb, 0x97, 0x3e, 0x2e, 0x2d, 0x4b, 0xbd,
	0xd0, 0x17, 0xb4, 0xbe, 0x59, 0x89, 0x84, 0xbc, 0xc2, 0x64, 0x17, 0x3e,
	0x29, 0xb4, 0x3d, 0x3d, 0x76, 0x7b, 0x4a, 0x3b, 0x67, 0xc7, 0x20, 0xbe,
	0x86, 0x6f, 0x37, 0xbd, 0xe1, 0x12, 0x59, 0x3e, 0xd2, 0xe3, 0x5d, 0x3e,
	0x37, 0xa6, 0x80, 0x3e, 0xcf, 0xf7, 0xa6, 0xbe, 0x96, 0xbd, 0xf0, 0xbb,
	0x58, 0x20, 0x3e, 0xbe, 0x7b, 0x4b, 0x3c, 0x3e, 0xe1, 0x97, 0x78, 0xbe,
	0x66, 0xa0, 0x7f, 0xbe, 0x9a, 0x05, 0xa7, 0xbd, 0xbf, 0x78, 0x7c, 0xbe,
	0x68, 0x79, 0x6b, 0xbe, 0xa3, 0x11, 0x56, 0x3e, 0x06, 0x17, 0xfd, 0xbd,
	0x5e, 0x2b, 0x76, 0x3d, 0x0d, 0xbb, 0x9b, 0x3e, 0x61, 0xbe, 0xa2, 0x3e,
	0xb8, 0x2e, 0x40, 0xbe, 0x41, 0x8f, 0x50, 0x3c, 0x6f, 0x49, 0x9e, 0xbd,
	0x96, 0x55, 0x9c, 0xbe, 0x22, 0x7d, 0x8f, 0x3d, 0x70, 0xa6, 0xaf, 0xbe,
	0x18, 0xe9, 0x98, 0x3d, 0x11, 0x10, 0x2b, 0xbe, 0x18, 0xd1, 0x75, 0x3e,
	0xa3, 0x56, 0x29, 0x3e, 0x91, 0x35, 0xa7, 0x3e, 0xe6, 0x77, 0xa6, 0x3d,
	0xb2, 0x7d, 0x9a, 0x3e, 0x18, 0xe3, 0xcf, 0x3e, 0xd6, 0x12, 0x0a, 0xbe,
	0x5e, 0xf8, 0x67, 0x3e, 0x15, 0x62, 0x02, 0x3e, 0x40, 0xbe, 0xc7, 0xbb,
	0x4d, 0x26, 0x74, 0x3e, 0x22, 0xd3, 0x95, 0xbe, 0xce, 0x66, 0xf8, 0xbd,
	0x69, 0x68, 0x05, 0x3e, 0x30, 0x87, 0x0a, 0xbe, 0xbb, 0x19, 0x55, 0xbe,
	0xb7, 0x9f, 0x8f, 0x3e, 0x3c, 0xe8, 0x65, 0x3d, 0x80, 0x4a, 0x04, 0x3e,
	0x2a, 0x49, 0x83, 0xbc, 0xac, 0xa8, 0x5f, 0x3b, 0x6f, 0xab, 0xb9, 0x3d,
	0x8c, 0x35, 0xa5, 0xbe, 0xeb, 0x41, 0xa2, 0xbd, 0x59, 0xde, 0x9d, 0x3e,
	0xde, 0x85, 0x91, 0x3e, 0x50, 0x2f, 0x98, 0xbe, 0x32, 0x10, 0x74, 0xbe,
	0x1f, 0x65, 0xdf, 0xbd, 0x4f, 0xad, 0x86, 0xbe, 0x75, 0x1e, 0xbf, 0x3c,
	0x7d, 0xd6, 0x7b, 0xbe, 0x03, 0xe0, 0xa3, 0x3d, 0x68, 0xa9, 0x33, 0xbe,
	0x3f, 0x24, 0x39, 0xbe, 0xe0, 0x93, 0x3b, 0xbd, 0xe5, 0x92, 0x17, 0x3d,
	0x26, 0x34, 0xae, 0x3d, 0xff, 0x6c, 0x8b, 0x3e, 0xfb, 0xd2, 0x62, 0x3e,
	0x1b, 0x16, 0x26, 0xbe, 0xd3, 0x0e, 0x14, 0xbe, 0xd7, 0x40, 0xdf, 0xbd,
	0xfc, 0xad, 0x46, 0x3e, 0x37, 0x14, 0xd3, 0xbd, 0xde, 0x1e, 0xde, 0xbc,
	0x68, 0xe5, 0x8a, 0xbe, 0xd6, 0xee, 0x22, 0xbe, 0xbf, 0x7d, 0xf1, 0x3d,
	0xcf, 0x00, 0x80, 0xbe, 0x04, 0x73, 0xf6, 0x3d, 0xa6, 0xe5, 0x55, 0x3e,
	0x33, 0x93, 0xc0, 0xbe, 0xa7, 0xf2, 0x6b, 0xbe, 0x2c, 0x87, 0x5b, 0xbd,
	0x48, 0xb4, 0x7f, 0x3e, 0x33, 0x51, 0x16, 0xbe, 0x8d, 0x0d, 0xde, 0x3d,
	0xe6, 0xb4, 0x82, 0xbd, 0xca, 0x88, 0xea, 0xbd, 0xba, 0x2e, 0x74, 0x3c,
	0x8d, 0xc8, 0x0e, 0x3e, 0x60, 0xd5, 0x8d, 0xbe, 0x4d, 0xd3, 0x8c, 0xbe,
	0xd5, 0x4d, 0xb6, 0xbe, 0x10, 0x54, 0xb7, 0xbe, 0xb9, 0x97, 0xb5, 0x3e,
	0xac, 0x70, 0x87, 0xbe, 0x7d, 0xcb, 0x99, 0xbd, 0x59, 0x92, 0x1f, 0xbe,
	0xac, 0x66, 0xad, 0xbe, 0x26, 0x17, 0xa8, 0x3d, 0xb3, 0x98, 0xe1, 0xbd,
	0xe2, 0x2c, 0xac, 0xbd, 0xd4, 0x2b, 0x50, 0xbe, 0x6f, 0xeb, 0x72, 0xbd,
	0x68, 0xd9, 0x96, 0x3e, 0x7f, 0x1c, 0xf8, 0xba, 0xa1, 0x5d, 0x16, 0xbf,
	0x23, 0xde, 0x37, 0x3d, 0xf9, 0xe0, 0x99, 0xbe, 0xfc, 0xa4, 0x39, 0x3e,
	0xbf, 0x3b, 0xd8, 0xbd, 0xc4, 0x07, 0xf2, 0x3d, 0x24, 0xa8, 0xd5, 0xbd,
	0x65, 0xac, 0xf0, 0x3d, 0xfa, 0xd8, 0x6d, 0x3e, 0xfc, 0xaa, 0x2d, 0xbe,
	0x39, 0x07, 0x8e, 0x3e, 0x13, 0x45, 0x88, 0xbe, 0x2e, 0xf1, 0xc2, 0x3a,
	0x89, 0xde, 0xc3, 0x3d, 0x44, 0x92, 0x93, 0x3e, 0x96, 0x2c, 0x3c, 0xbe,
	0xf3, 0x42, 0xc8, 0x3d, 0x49, 0x36, 0x5a, 0x3e, 0x85, 0x1b, 0xdf, 0x3d,
	0x1b, 0x47, 0x48, 0x3d, 0xc3, 0x91, 0x45, 0xbc, 0x02, 0xee, 0x10, 0xbe,
	0x9f, 0xde, 0x0b, 0xbe, 0xb1, 0x85, 0xa7, 0x3e, 0xf1, 0x23, 0xbd, 0x3d,
	0x79, 0xac, 0xc9, 0x3c, 0x4c, 0xf8, 0x64, 0x3e, 0xa9, 0x7d, 0xc7, 0xbc,
	0x30, 0xdb, 0xb9, 0xbe, 0x53, 0x2c, 0x10, 0xbd, 0x40, 0x8e, 0x92, 0x3e,
	0x3b, 0xf1, 0x07, 0xbd, 0x28, 0xf3, 0xd8, 0x3e, 0xe5, 0xa6, 0x9f, 0x3e,
	0x5f, 0x71, 0xf9, 0xbc, 0x1a, 0x88, 0xae, 0x3d, 0xfb, 0x9e, 0xb7, 0xbe,
	0x6e, 0xc4, 0xba, 0xbe, 0xc0, 0x11, 0x37, 0xbe, 0xf9, 0x0a, 0x75, 0x3e,
	0xa3, 0x1f, 0xcc, 0x3c, 0xa0, 0xf6, 0xc4, 0x3d, 0x62, 0x65, 0x9d, 0xbe,
	0x61, 0x1a, 0xe6, 0x3d, 0xaa, 0xe5, 0xf3, 0x3d, 0x2a, 0x34, 0x8e, 0xbe,
	0x59, 0x09, 0xaa, 0xbd, 0xf8, 0x77, 0xe9, 0xbc, 0x50, 0xa8, 0x6a, 0x3d,
	0xaf, 0xab, 0x5c, 0x3e, 0xac, 0xa6, 0x07, 0xbd, 0x2d, 0xb3, 0xf7, 0xbc,
	0xe5, 0x1e, 0x19, 0xbd, 0x78, 0xfd, 0x98, 0xbe, 0x2e, 0x91, 0xf3, 0xbd,
	0xc6, 0x2d, 0xa5, 0x3e, 0x37, 0xb7, 0x8b, 0x3e, 0x74, 0x78, 0xa5, 0xbd,
	0xb3, 0xfa, 0xd8, 0x3d, 0x08, 0xb3, 0x8b, 0x3d, 0x36, 0x5b, 0x74, 0xbd,
	0xd3, 0x06, 0x2a, 0x3e, 0x97, 0x4f, 0x5c, 0x3d, 0xb2, 0xbf, 0x21, 0x3e,
	0x3e, 0x9d, 0x0d, 0x3e, 0x4c, 0x84, 0xaf, 0xbd, 0xd1, 0xe3, 0x37, 0xbe,
	0xb0, 0x0d, 0x9b, 0x3d, 0x51, 0x72, 0xbe, 0xbe, 0xd8, 0x1b, 0x29, 0x3e,
	0x7d, 0x51, 0x58, 0xbd, 0x2b, 0x17, 0x1b, 0x3e, 0x1f, 0xb1, 0x5f, 0x3e,
	0x24, 0x76, 0xb0, 0x3e, 0x85, 0x09, 0x1c, 0xbd, 0x25, 0x79, 0x47, 0x3e,
	0x62, 0xa4, 0x4c, 0xbe, 0xd3, 0xf5, 0x27, 0x3d, 0xde, 0x03, 0xfb, 0xbd,
	0xad, 0x67, 0x2a, 0xbe, 0x4e, 0xd6, 0x84, 0x3d, 0x2e, 0x99, 0x13, 0x3e,
	0x9b, 0x51, 0x14, 0xbe, 0x6a, 0xfe, 0x3d, 0xbe, 0xf8, 0xdd, 0x7a, 0x3e,
	0x8a, 0xba, 0xac, 0xbe, 0x71, 0x3c, 0x42, 0xbe, 0xa9, 0x3f, 0x04, 0x3e,
	0x91, 0xff, 0xa2, 0x3d, 0xb7, 0x7a, 0xfd, 0xbe, 0x10, 0xfd, 0x15, 0xbe,
	0xff, 0x26, 0x34, 0x3d, 0xfa, 0xf1, 0x6d, 0xbc, 0x47, 0x75, 0xf4, 0x3d,
	0xdf, 0x5d, 0x61, 0x3e, 0xc6, 0x4a, 0xa5, 0x3e, 0x5e, 0x58, 0x31, 0xbe,
	0x9d, 0x35, 0xa2, 0x3e, 0xc6, 0x1f, 0x90, 0x3d, 0x4c, 0xd4, 0x94, 0xbd,
	0x47, 0x0a, 0x97, 0xbc, 0xc8, 0x6b, 0xa6, 0xbd, 0xc1, 0x14, 0x8e, 0xbe,
	0x9b, 0x98, 0xac, 0x3e, 0xd9, 0xa2, 0x50, 0x3e, 0xba, 0xf4, 0x27, 0x3e,
	0xec, 0x63, 0x46, 0x3e, 0x55, 0x67, 0x1c, 0x3e, 0x6e, 0x56, 0x88, 0x3e,
	0xa8, 0x85, 0xec, 0x3b, 0x53, 0x70, 0x98, 0xbe, 0xbd, 0xb3, 0x9a, 0x3e,
	0x9f, 0xdb, 0x0c, 0xbe, 0x12, 0x25, 0xf2, 0xbd, 0xf3, 0x02, 0x79, 0x3e,
	0x37, 0xda, 0xaa, 0xbc, 0x39, 0x77, 0xdc, 0xbd, 0xb4, 0x5d, 0xa7, 0xbd,
	0x7d, 0x8a, 0xf1, 0x3c, 0x1a, 0x6e, 0x9f, 0x3d, 0x7d, 0x47, 0xc6, 0x3e,
	0xad, 0xa7, 0xd3, 0x3d, 0xed, 0x8f, 0x08, 0xbe, 0x5f, 0x19, 0x65, 0xbe,
	0xe6, 0x51, 0xe4, 0xbd, 0x0b, 0x95, 0x13, 0xbe, 0x5d, 0x7f, 0x83, 0x3e,
	0x5e, 0x26, 0x7d, 0xbd, 0x96, 0x37, 0x47, 0xbe, 0x34, 0x00, 0x4c, 0xbe,
	0x20, 0x04, 0x1e, 0xbe, 0x00, 0xe6, 0x26, 0xbb, 0x12, 0xc1, 0xab, 0xbe,
	0xd2, 0x1b, 0xcb, 0x3d, 0x75, 0xc1, 0xc9, 0xbe, 0x5a, 0xb8, 0x75, 0xbe,
	0x29, 0x33, 0x85, 0xbd, 0x4f, 0xdc, 0x83, 0xbe, 0xfd, 0xc0, 0xa2, 0x3d,
	0x79, 0x55, 0x8b, 0xbe, 0x00, 0x89, 0x74, 0x3e, 0x13, 0x9d, 0x20, 0x3e,
	0xd8, 0xb3, 0x92, 0xbe, 0x3a, 0xed, 0x50, 0x3e, 0xce, 0x18, 0xe4, 0x3c,
	0x10, 0xaf, 0x4d, 0x3e, 0xee, 0xc4, 0xc0, 0xbe, 0x03, 0xd0, 0x2d, 0x3e,
	0x2b, 0xfe, 0xd8, 0x3b, 0x5f, 0x57, 0xc7, 0x3d, 0x86, 0x39, 0x21, 0xbe,
	0x47, 0x21, 0x5e, 0xbe, 0x86, 0x7a, 0xf4, 0xbd, 0x76, 0xf9, 0xbd, 0xbe,
	0x97, 0xbd, 0x4f, 0x3e, 0x60, 0x4f, 0x9c, 0xbd, 0x13, 0xb3, 0xdf, 0x3d,
	0xc9, 0x9b, 0xc4, 0xbe, 0x38, 0xf4, 0x02, 0x3d, 0x6f, 0x2b, 0xac, 0xbd,
	0x9e, 0x7d, 0xa1, 0xbd, 0x57, 0x33, 0xa2, 0x3d, 0x6c, 0xe0, 0x02, 0xbc,
	0x61, 0x12, 0x10, 0xbe, 0x5c, 0x99, 0x20, 0xbd, 0x3b, 0xb0, 0x01, 0xbe,
	0xb5, 0x5d, 0x45, 0xbe, 0x7a, 0x3b, 0x52, 0xbe, 0xb5, 0x51, 0xbb, 0xbc,
	0xa3, 0x68, 0x79, 0x3e, 0x65, 0xa1, 0xac, 0xbd, 0xbd, 0xb8, 0xb6, 0x3d,
	0x07, 0x7a, 0x85, 0xbe, 0x04, 0xd2, 0x66, 0xbe, 0xb7, 0xb4, 0xdd, 0xbd,
	0xd0, 0x33, 0x48, 0x3d, 0x80, 0xee, 0xf6, 0x3d, 0x6c, 0xc3, 0x32, 0xbd,
	0xc8, 0xac, 0x86, 0x3e, 0xe0, 0xd2, 0xc2, 0x3e, 0xf5, 0xc3, 0x22, 0xbd,
	0xa6, 0x9f, 0x70, 0x3e, 0x0d, 0x42, 0xbc, 0x3e, 0xce, 0x36, 0x0d, 0xbd,
	0x40, 0xc3, 0x00, 0x3f, 0x7f, 0x99, 0x56, 0xbf, 0x3e, 0xf9, 0x2b, 0xbe,
	0x64, 0xf6, 0x2e, 0xbd, 0x0a, 0x03, 0x11, 0xbd, 0x0c, 0x85, 0x4a, 0x3e,
	0x44, 0xa6, 0xb1, 0xbc, 0x4a, 0xae, 0xa4, 0xbe, 0x8f, 0xb4, 0x9c, 0xbd,
	0x32, 0xd0, 0xcc, 0xba, 0x1a, 0x2f, 0x9b, 0xbd, 0xa2, 0x5a, 0xa4, 0x3e,
	0xf9, 0x4c, 0xf4, 0xbd, 0x4b, 0x0f, 0x40, 0xbe, 0x18, 0xb7, 0x19, 0x3e,
	0xcd, 0x75, 0x6f, 0x3e, 0x9e, 0x69, 0xbd, 0x3e, 0x87, 0x2a, 0x52, 0x3e,
	0xc4, 0xad, 0x09, 0x3e, 0x45, 0x1e, 0x9e, 0x3e, 0xad, 0x9e, 0x40, 0x3e,
	0xe6, 0xfe, 0xff, 0xff, 0x04, 0x00, 0x00, 0x00, 0x40, 0x00, 0x00, 0x00,
	0x7f, 0xae, 0x34, 0xbd, 0xfe, 0x3f, 0x7f, 0x3b, 0xb1, 0xe0, 0x08, 0x3e,
	0xc1, 0x07, 0xd7, 0x3d, 0x59, 0xea, 0x18, 0xbd, 0xa0, 0x27, 0x9e, 0x3d,
	0x20, 0x12, 0x30, 0x3d, 0xb8, 0x14, 0x5c, 0x3e, 0xa9, 0x35, 0xb8, 0xbc,
	0x4c, 0x8f, 0x80, 0x3d, 0xaa, 0xfa, 0xa7, 0x3c, 0x83, 0xda, 0x1b, 0x3d,
	0x94, 0x93, 0x18, 0x3e, 0x68, 0x42, 0xa1, 0xbc, 0xfc, 0x03, 0xdc, 0xbd,
	0x3a, 0xf1, 0x48, 0xbb, 0x32, 0xff, 0xff, 0xff, 0x04, 0x00, 0x00, 0x00,
	0xc0, 0x00, 0x00, 0x00, 0xf6, 0x41, 0xd6, 0xbe, 0xd2, 0x23, 0x39, 0x3d,
	0x02, 0xcd, 0x6e, 0x3e, 0xf5, 0x9b, 0x04, 0x3f, 0xad, 0x8d, 0x5c, 0xbe,
	0x75, 0xb6, 0xbe, 0x3e, 0xea, 0x79, 0x6a, 0x3d, 0x1b, 0x60, 0xc4, 0x3d,
	0x4a, 0x84, 0xe8, 0x3d, 0x25, 0xc1, 0xf4, 0x3e, 0xb3, 0xd7, 0x39, 0x3d,
	0xab, 0x1a, 0x28, 0x3e, 0x6a, 0xfe, 0x49, 0xbe, 0xa7, 0x80, 0x99, 0x3e,
	0x71, 0xa4, 0xe8, 0x3e, 0x0b, 0x8b, 0x83, 0xbe, 0xbc, 0x52, 0xba, 0x3b,
	0x8d, 0x3f, 0xb1, 0x3c, 0x9b, 0x8b, 0x95, 0xbe, 0xc1, 0x33, 0xd4, 0x3d,
	0x5d, 0x83, 0xa5, 0xbe, 0x2f, 0x23, 0x12, 0x3d, 0x10, 0xa3, 0x1a, 0x3c,
	0xc4, 0x54, 0xfd, 0xbd, 0x8b, 0x9f, 0xa1, 0xbe, 0x29, 0x2e, 0xe2, 0xbe,
	0x19, 0x7b, 0x7e, 0x3e, 0xb4, 0xa6, 0xb6, 0x3e, 0xc2, 0xad, 0x4d, 0x3e,
	0xc0, 0x19, 0x4f, 0x3e, 0x25, 0x03, 0xba, 0x3e, 0xf0, 0xcc, 0x9d, 0x3e,
	0xe8, 0x44, 0xac, 0x3e, 0x0c, 0x5d, 0x35, 0xbe, 0xfb, 0x03, 0xc7, 0x3e,
	0x0f, 0x14, 0x05, 0xbe, 0xfd, 0x4c, 0x97, 0x3d, 0xbf, 0x59, 0xc3, 0xbd,
	0x3f, 0x97, 0x99, 0xbe, 0x0f, 0xf1, 0x4c, 0x3e, 0x57, 0x43, 0x79, 0x3e,
	0xdd, 0x20, 0x9d, 0xbc, 0x70, 0x8e, 0xe9, 0xbe, 0x4d, 0xf3, 0xcd, 0x3d,
	0x18, 0x21, 0xe8, 0x3e, 0x1a, 0xeb, 0x33, 0xbe, 0x07, 0xe8, 0x5c, 0x3e,
	0x4b, 0xff, 0x1a, 0xbe, 0x00, 0x00, 0x06, 0x00, 0x08, 0x00, 0x04, 0x00,
	0x06, 0x00, 0x00, 0x00, 0x04, 0x00, 0x00, 0x00, 0x0c, 0x00, 0x00, 0x00,
	0x81, 0x6e, 0x0c, 0x3d, 0x7f, 0xa2, 0x0f, 0x3c, 0xf1, 0x62, 0x27, 0x3e,
	0xb8, 0xfb, 0xff, 0xff, 0x0f, 0x00, 0x00, 0x00, 0x54, 0x4f, 0x43, 0x4f,
	0x20, 0x43, 0x6f, 0x6e, 0x76, 0x65, 0x72, 0x74, 0x65, 0x64, 0x2e, 0x00,
	0x01, 0x00, 0x00, 0x00, 0x10, 0x00, 0x00, 0x00, 0x0c, 0x00, 0x14, 0x00,
	0x04, 0x00, 0x08, 0x00, 0x0c, 0x00, 0x10, 0x00, 0x0c, 0x00, 0x00, 0x00,
	0xf0, 0x00, 0x00, 0x00, 0xe4, 0x00, 0x00, 0x00, 0xd8, 0x00, 0x00, 0x00,
	0x04, 0x00, 0x00, 0x00, 0x03, 0x00, 0x00, 0x00, 0x90, 0x00, 0x00, 0x00,
	0x48, 0x00, 0x00, 0x00, 0x04, 0x00, 0x00, 0x00, 0xce, 0xff, 0xff, 0xff,
	0x00, 0x00, 0x00, 0x08, 0x18, 0x00, 0x00, 0x00, 0x0c, 0x00, 0x00, 0x00,
	0x04, 0x00, 0x00, 0x00, 0x1c, 0xfc, 0xff, 0xff, 0x01, 0x00, 0x00, 0x00,
	0x00, 0x00, 0x00, 0x00, 0x03, 0x00, 0x00, 0x00, 0x07, 0x00, 0x00, 0x00,
	0x08, 0x00, 0x00, 0x00, 0x09, 0x00, 0x00, 0x00, 0x00, 0x00, 0x0e, 0x00,
	0x14, 0x00, 0x00, 0x00, 0x08, 0x00, 0x0c, 0x00, 0x07, 0x00, 0x10, 0x00,
	0x0e, 0x00, 0x00, 0x00, 0x00, 0x00, 0x00, 0x08, 0x1c, 0x00, 0x00, 0x00,
	0x10, 0x00, 0x00, 0x00, 0x04, 0x00, 0x00, 0x00, 0xba, 0xff, 0xff, 0xff,
	0x00, 0x00, 0x00, 0x01, 0x01, 0x00, 0x00, 0x00, 0x07, 0x00, 0x00, 0x00,
	0x03, 0x00, 0x00, 0x00, 0x04, 0x00, 0x00, 0x00, 0x05, 0x00, 0x00, 0x00,
	0x06, 0x00, 0x00, 0x00, 0x00, 0x00, 0x0e, 0x00, 0x16, 0x00, 0x00, 0x00,
	0x08, 0x00, 0x0c, 0x00, 0x07, 0x00, 0x10, 0x00, 0x0e, 0x00, 0x00, 0x00,
	0x00, 0x00, 0x00, 0x08, 0x24, 0x00, 0x00, 0x00, 0x18, 0x00, 0x00, 0x00,
	0x0c, 0x00, 0x00, 0x00, 0x00, 0x00, 0x06, 0x00, 0x08, 0x00, 0x07, 0x00,
	0x06, 0x00, 0x00, 0x00, 0x00, 0x00, 0x00, 0x01, 0x01, 0x00, 0x00, 0x00,
	0x04, 0x00, 0x00, 0x00, 0x03, 0x00, 0x00, 0x00, 0x01, 0x00, 0x00, 0x00,
	0x02, 0x00, 0x00, 0x00, 0x03, 0x00, 0x00, 0x00, 0x01, 0x00, 0x00, 0x00,
	0x00, 0x00, 0x00, 0x00, 0x01, 0x00, 0x00, 0x00, 0x01, 0x00, 0x00, 0x00,
	0x0a, 0x00, 0x00, 0x00, 0x10, 0x03, 0x00, 0x00, 0xa4, 0x02, 0x00, 0x00,
	0x40, 0x02, 0x00, 0x00, 0xf4, 0x01, 0x00, 0x00, 0xac, 0x01, 0x00, 0x00,
	0x48, 0x01, 0x00, 0x00, 0xfc, 0x00, 0x00, 0x00, 0xb4, 0x00, 0x00, 0x00,
	0x50, 0x00, 0x00, 0x00, 0x04, 0x00, 0x00, 0x00, 0x26, 0xfd, 0xff, 0xff,
	0x3c, 0x00, 0x00, 0x00, 0x01, 0x00, 0x00, 0x00, 0x0c, 0x00, 0x00, 0x00,
	0x04, 0x00, 0x00, 0x00, 0x18, 0xfd, 0xff, 0xff, 0x21, 0x00, 0x00, 0x00,
	0x73, 0x65, 0x71, 0x75, 0x65, 0x6e, 0x74, 0x69, 0x61, 0x6c, 0x5f, 0x38,
	0x2f, 0x64, 0x65, 0x6e, 0x73, 0x65, 0x5f, 0x33, 0x32, 0x2f, 0x4d, 0x61,
	0x74, 0x4d, 0x75, 0x6c, 0x5f, 0x62, 0x69, 0x61, 0x73, 0x00, 0x00, 0x00,
	0x01, 0x00, 0x00, 0x00, 0x03, 0x00, 0x00, 0x00, 0x6e, 0xfd, 0xff, 0xff,
	0x50, 0x00, 0x00, 0x00, 0x02, 0x00, 0x00, 0x00, 0x0c, 0x00, 0x00, 0x00,
	0x04, 0x00, 0x00, 0x00, 0x60, 0xfd, 0xff, 0xff, 0x35, 0x00, 0x00, 0x00,
	0x73, 0x65, 0x71, 0x75, 0x65, 0x6e, 0x74, 0x69, 0x61, 0x6c, 0x5f, 0x38,
	0x2f, 0x64, 0x65, 0x6e, 0x73, 0x65, 0x5f, 0x33, 0x32, 0x2f, 0x4d, 0x61,
	0x74, 0x4d, 0x75, 0x6c, 0x2f, 0x52, 0x65, 0x61, 0x64, 0x56, 0x61, 0x72,
	0x69, 0x61, 0x62, 0x6c, 0x65, 0x4f, 0x70, 0x2f, 0x74, 0x72, 0x61, 0x6e,
	0x73, 0x70, 0x6f, 0x73, 0x65, 0x00, 0x00, 0x00, 0x02, 0x00, 0x00, 0x00,
	0x03, 0x00, 0x00, 0x00, 0x10, 0x00, 0x00, 0x00, 0xce, 0xfd, 0xff, 0xff,
	0x34, 0x00, 0x00, 0x00, 0x0a, 0x00, 0x00, 0x00, 0x0c, 0x00, 0x00, 0x00,
	0x04, 0x00, 0x00, 0x00, 0xc0, 0xfd, 0xff, 0xff, 0x1a, 0x00, 0x00, 0x00,
	0x73, 0x65, 0x71, 0x75, 0x65, 0x6e, 0x74, 0x69, 0x61, 0x6c, 0x5f, 0x38,
	0x2f, 0x64, 0x65, 0x6e, 0x73, 0x65, 0x5f, 0x33, 0x31, 0x2f, 0x52, 0x65,
	0x6c, 0x75, 0x00, 0x00, 0x02, 0x00, 0x00, 0x00, 0x01, 0x00, 0x00, 0x00,
	0x10, 0x00, 0x00, 0x00, 0x12, 0xfe, 0xff, 0xff, 0x3c, 0x00, 0x00, 0x00,
	0x03, 0x00, 0x00, 0x00, 0x0c, 0x00, 0x00, 0x00, 0x04, 0x00, 0x00, 0x00,
	0x04, 0xfe, 0xff, 0xff, 0x21, 0x00, 0x00, 0x00, 0x73, 0x65, 0x71, 0x75,
	0x65, 0x6e, 0x74, 0x69, 0x61, 0x6c, 0x5f, 0x38, 0x2f, 0x64, 0x65, 0x6e,
	0x73, 0x65, 0x5f, 0x33, 0x31, 0x2f, 0x4d, 0x61, 0x74, 0x4d, 0x75, 0x6c,
	0x5f, 0x62, 0x69, 0x61, 0x73, 0x00, 0x00, 0x00, 0x01, 0x00, 0x00, 0x00,
	0x10, 0x00, 0x00, 0x00, 0x5a, 0xfe, 0xff, 0xff, 0x50, 0x00, 0x00, 0x00,
	0x04, 0x00, 0x00, 0x00, 0x0c, 0x00, 0x00, 0x00, 0x04, 0x00, 0x00, 0x00,
	0x4c, 0xfe, 0xff, 0xff, 0x35, 0x00, 0x00, 0x00, 0x73, 0x65, 0x71, 0x75,
	0x65, 0x6e, 0x74, 0x69, 0x61, 0x6c, 0x5f, 0x38, 0x2f, 0x64, 0x65, 0x6e,
	0x73, 0x65, 0x5f, 0x33, 0x31, 0x2f, 0x4d, 0x61, 0x74, 0x4d, 0x75, 0x6c,
	0x2f, 0x52, 0x65, 0x61, 0x64, 0x56, 0x61, 0x72, 0x69, 0x61, 0x62, 0x6c,
	0x65, 0x4f, 0x70, 0x2f, 0x74, 0x72, 0x61, 0x6e, 0x73, 0x70, 0x6f, 0x73,
	0x65, 0x00, 0x00, 0x00, 0x02, 0x00, 0x00, 0x00, 0x10, 0x00, 0x00, 0x00,
	0x20, 0x00, 0x00, 0x00, 0xba, 0xfe, 0xff, 0xff, 0x34, 0x00, 0x00, 0x00,
	0x09, 0x00, 0x00, 0x00, 0x0c, 0x00, 0x00, 0x00, 0x04, 0x00, 0x00, 0x00,
	0xac, 0xfe, 0xff, 0xff, 0x1a, 0x00, 0x00, 0x00, 0x73, 0x65, 0x71, 0x75,
	0x65, 0x6e, 0x74, 0x69, 0x61, 0x6c, 0x5f, 0x38, 0x2f, 0x64, 0x65, 0x6e,
	0x73, 0x65, 0x5f, 0x33, 0x30, 0x2f, 0x52, 0x65, 0x6c, 0x75, 0x00, 0x00,
	0x02, 0x00, 0x00, 0x00, 0x01, 0x00, 0x00, 0x00, 0x20, 0x00, 0x00, 0x00,
	0xfe, 0xfe, 0xff, 0xff, 0x3c, 0x00, 0x00, 0x00, 0x05, 0x00, 0x00, 0x00,
	0x0c, 0x00, 0x00, 0x00, 0x04, 0x00, 0x00, 0x00, 0xf0, 0xfe, 0xff, 0xff,
	0x21, 0x00, 0x00, 0x00, 0x73, 0x65, 0x71, 0x75, 0x65, 0x6e, 0x74, 0x69,
	0x61, 0x6c, 0x5f, 0x38, 0x2f, 0x64, 0x65, 0x6e, 0x73, 0x65, 0x5f, 0x33,
	0x30, 0x2f, 0x4d, 0x61, 0x74, 0x4d, 0x75, 0x6c, 0x5f, 0x62, 0x69, 0x61,
	0x73, 0x00, 0x00, 0x00, 0x01, 0x00, 0x00, 0x00, 0x20, 0x00, 0x00, 0x00,
	0x46, 0xff, 0xff, 0xff, 0x50, 0x00, 0x00, 0x00, 0x06, 0x00, 0x00, 0x00,
	0x0c, 0x00, 0x00, 0x00, 0x04, 0x00, 0x00, 0x00, 0x38, 0xff, 0xff, 0xff,
	0x35, 0x00, 0x00, 0x00, 0x73, 0x65, 0x71, 0x75, 0x65, 0x6e, 0x74, 0x69,
	0x61, 0x6c, 0x5f, 0x38, 0x2f, 0x64, 0x65, 0x6e, 0x73, 0x65, 0x5f, 0x33,
	0x30, 0x2f, 0x4d, 0x61, 0x74, 0x4d, 0x75, 0x6c, 0x2f, 0x52, 0x65, 0x61,
	0x64, 0x56, 0x61, 0x72, 0x69, 0x61, 0x62, 0x6c, 0x65, 0x4f, 0x70, 0x2f,
	0x74, 0x72, 0x61, 0x6e, 0x73, 0x70, 0x6f, 0x73, 0x65, 0x00, 0x00, 0x00,
	0x02, 0x00, 0x00, 0x00, 0x20, 0x00, 0x00, 0x00, 0x0c, 0x00, 0x00, 0x00,
	0xa6, 0xff, 0xff, 0xff, 0x48, 0x00, 0x00, 0x00, 0x08, 0x00, 0x00, 0x00,
	0x2c, 0x00, 0x00, 0x00, 0x0c, 0x00, 0x00, 0x00, 0x08, 0x00, 0x0c, 0x00,
	0x04, 0x00, 0x08, 0x00, 0x08, 0x00, 0x00, 0x00, 0x10, 0x00, 0x00, 0x00,
	0x04, 0x00, 0x00, 0x00, 0x01, 0x00, 0x00, 0x00, 0x00, 0x00, 0x7f, 0x43,
	0x01, 0x00, 0x00, 0x00, 0x00, 0x00, 0x00, 0x00, 0x0f, 0x00, 0x00, 0x00,
	0x64, 0x72, 0x6f, 0x70, 0x6f, 0x75, 0x74, 0x5f, 0x38, 0x5f, 0x69, 0x6e,
	0x70, 0x75, 0x74, 0x00, 0x02, 0x00, 0x00, 0x00, 0x01, 0x00, 0x00, 0x00,
	0x0c, 0x00, 0x00, 0x00, 0x00, 0x00, 0x0e, 0x00, 0x14, 0x00, 0x04, 0x00,
	0x00, 0x00, 0x08, 0x00, 0x0c, 0x00, 0x10, 0x00, 0x0e, 0x00, 0x00, 0x00,
	0x28, 0x00, 0x00, 0x00, 0x07, 0x00, 0x00, 0x00, 0x10, 0x00, 0x00, 0x00,
	0x08, 0x00, 0x00, 0x00, 0x04, 0x00, 0x04, 0x00, 0x04, 0x00, 0x00, 0x00,
	0x08, 0x00, 0x00, 0x00, 0x49, 0x64, 0x65, 0x6e, 0x74, 0x69, 0x74, 0x79,
	0x00, 0x00, 0x00, 0x00, 0x02, 0x00, 0x00, 0x00, 0x01, 0x00, 0x00, 0x00,
	0x03, 0x00, 0x00, 0x00, 0x01, 0x00, 0x00, 0x00, 0x10, 0x00, 0x00, 0x00,
	0x00, 0x00, 0x0a, 0x00, 0x0c, 0x00, 0x07, 0x00, 0x00, 0x00, 0x08, 0x00,
	0x0a, 0x00, 0x00, 0x00, 0x00, 0x00, 0x00, 0x09, 0x03, 0x00, 0x00, 0x00};
const int model_data_len = 5412;

float mean_array[12] = {867.3590608622225, 223.46797020070338, 251.1686898504783, 100.53454586287427, 616.1269093843872, 129.00335015224135, 37318.3151880079, 22360.817207655942, 34302.47906864309, 22374.597125103508, 48817.72635439145, 26867.565797945055};
float std_array[12] = {627.038870703017, 305.2730366975658, 320.67455328130774, 138.15699376681627, 432.05376750944606, 191.42434657446015, 58248.58180174847, 31522.53839541515, 53054.407620147125, 32107.725736014396, 66876.85583942631, 35963.860746128456};
